{"<|endoftext|>":0,"[PAD]":1,"[MASK]":2,"!":3,"\"":4,"#":5,"$":6,"%":7,"&":8,"'":9,"(":10,")":11,"*":12,"+":13,",":14,"-":15,".":16,"/":17,"0":18,"1":19,"2":20,"3":21,"4":22,"5":23,"6":24,"7":25,"8":26,"9":27,":":28,";":29,"<":30,"=":31,">":32,"?":33,"@":34,"A":35,"B":36,"C":37,"D":38,"E":39,"F":40,"G":41,"H":42,"I":43,"J":44,"K":45,"L":46,"M":47,"N":48,"O":49,"P":50,"Q":51,"R":52,"S":53,"T":54,"U":55,"V":56,"W":57,"X":58,"Y":59,"Z":60,"[":61,"\\":62,"]":63,"^":64,"_":65,"`":66,"a":67,"b":68,"c":69,"d":70,"e":71,"f":72,"g":73,"h":74,"i":75,"j":76,"k":77,"l":78,"m":79,"n":80,"o":81,"p":82,"q":83,"r":84,"s":85,"t":86,"u":87,"v":88,"w":89,"x":90,"y":91,"z":92,"{":93,"|":94,"}":95,"~":96,"¡":97,"¢":98,"£":99,"¤":100,"¥":101,"¦":102,"§":103,"¨":104,"©":105,"ª":106,"«":107,"¬":108,"®":109,"¯":110,"°":111,"±":112,"²":113,"³":114,"´":115,"µ":116,"¶":117,"·":118,"¸":119,"¹":120,"º":121,"»":122,"¼":123,"½":124,"¾":125,"¿":126,"À":127,"Á":128,"Â":129,"Ã":130,"Ä":131,"Å":132,"Æ":133,"Ç":134,"È":135,"É":136,"Ê":137,"Ë":138,"Ì":139,"Í":140,"Î":141,"Ï":142,"Ð":143,"Ñ":144,"Ò":145,"Ó":146,"Ô":147,"Õ":148,"Ö":149,"×":150,"Ø":151,"Ù":152,"Ú":153,"Û":154,"Ü":155,"Ý":156,"Þ":157,"ß":158,"à":159,"á":160,"â":161,"ã":162,"ä":163,"å":164,"æ":165,"ç":166,"è":167,"é":168,"ê":169,"ë":170,"ì":171,"í":172,"î":173,"ï":174,"ð":175,"ñ":176,"ò":177,"ó":178,"ô":179,"õ":180,"ö":181,"÷":182,"ø":183,"ù":184,"ú":185,"û":186,"ü":187,"ý":188,"þ":189,"ÿ":190,"Ā":191,"ā":192,"Ă":193,"ă":194,"Ą":195,"ą":196,"Ć":197,"ć":198,"Ĉ":199,"ĉ":200,"Ċ":201,"ċ":202,"Č":203,"č":204,"Ď":205,"ď":206,"Đ":207,"đ":208,"Ē":209,"ē":210,"Ĕ":211,"ĕ":212,"Ė":213,"ė":214,"Ę":215,"ę":216,"Ě":217,"ě":218,"Ĝ":219,"ĝ":220,"Ğ":221,"ğ":222,"Ġ":223,"ġ":224,"Ģ":225,"ģ":226,"Ĥ":227,"ĥ":228,"Ħ":229,"ħ":230,"Ĩ":231,"ĩ":232,"Ī":233,"ī":234,"Ĭ":235,"ĭ":236,"Į":237,"į":238,"İ":239,"ı":240,"Ĳ":241,"ĳ":242,"Ĵ":243,"ĵ":244,"Ķ":245,"ķ":246,"ĸ":247,"Ĺ":248,"ĺ":249,"Ļ":250,"ļ":251,"Ľ":252,"ľ":253,"Ŀ":254,"ŀ":255,"Ł":256,"ł":257,"Ń":258,"ts":259,"le":260,"Ġh":261,"ng":262,"la":263,"Ġk":264,"Ġb":265,"Ġm":266,"Ġho":267,"Ġle":268,"lo":269,"di":270,"Ġe":271,"wa":272,"na":273,"Ġts":274,"se":275,"Ġka":276,"ya":277,"ha":278,"Ġba":279,"Ġdi":280,"Ġya":281,"he":282,"Ġt":283,"ho":284,"Ġa":285,"Ġse":286,"Ġbo":287,"Ġmo":288,"eng":289,"Ġha":290,"sa":291,"re":292,"Ġo":293,"Ġn":294,"be":295,"ka":296,"Ġtse":297,"pa":298,"Ġke":299,"Ġma":300,"ba":301,"tsa":302,"Ġtsa":303,"ko":304,"me":305,"Ġp":306,"Ġf":307,"we":308,"mo":309,"ne":310,"tso":311,"te":312,"ta":313,"ma":314,"so":315,"ra":316,"ke":317,"tho":318,"Ġwa":319,"hi":320,"kg":321,"ro":322,"Ġla":323,"Ġsa":324,"Ġhore":325,"Ġkg":326,"tse":327,"si":328,"Ġna":329,"ĠM":330,"Ġme":331,"Ġi":332,"to":333,"tsi":334,"Ġtla":335,"no":336,"tla":337,"ele":338,"lwa":339,"bo":340,"tj":341,"po":342,"hu":343,"hlo":344,"tle":345,"ĠB":346,"hwa":347,"bedi":348,"Ġkapa":349,"Ġre":350,"ti":351,"Ġj":352,"fa":353,"Ġmme":354,"hla":355,"pe":356,"fe":357,"leng":358,"Ġfe":359,"tl":360,"weng":361,"Ġne":362,"tseng":363,"ĠH":364,"ye":365,"hle":366,"tha":367,"Di":368,"ona":369,"ĠT":370,"Ġhlo":371,"Ġtshe":372,"ri":373,"lla":374,"ĠMo":375,"ki":376,"Ġjwa":377,"Ġlo":378,"ĠK":379,"Ġhla":380,"tshe":381,"Le":382,"tjha":383,"tswa":384,"sebe":385,"bi":386,"nts":387,"Ġko":388,"phe":389,"ĠS":390,"holo":391,"llo":392,"sebetsi":393,"tlo":394,"mi":395,"nya":396,"keng":397,"Ġkgo":398,"Ġfa":399,"pi":400,"ĠBo":401,"swa":402,"lang":403,"Ġetsa":404,"lao":405,"kgo":406,"Ġng":407,"Ġena":408,"ĠLe":409,"ĠDi":410,"Ġbona":411,"nye":412,"Ġtl":413,"neng":414,"emo":415,"Ġsebedi":416,"Ġ(":417,"Ġhae":418,"Ġeo":419,"ĠP":420,"Ġq":421,"Ġphe":422,"Ġtshwa":423,"the":424,"uo":425,"Ġjwalo":426,"Ġloke":427,"kga":428,"ĠA":429,"Ġbe":430,"ĠSe":431,"Ġpo":432,"ĠN":433,"Ġfu":434,"ela":435,"Ġnako":436,"Ġta":437,"tsweng":438,"fu":439,"pha":440,"du":441,"hele":442,"tswe":443,"Ġboi":444,"lle":445,"Ġtj":446,"Ġpele":447,"she":448,"ni":449,"Ġmoo":450,"Ġte":451,"hang":452,"letso":453,"Ġ1":454,"Ġbatho":455,"tlha":456,"Ġy":457,"Ġthu":458,"Ġteng":459,"tjhaba":460,"fo":461,"thu":462,"Ġkga":463,"lemo":464,"kwa":465,"Ġro":466,"ata":467,"Ġhaholo":468,"Ġ-":469,"Ġhao":470,"bu":471,"Ġdin":472,"Ġdip":473,"Ġsebe":474,"Ġleng":475,"ĠMa":476,"ngwe":477,"ĠHa":478,"helete":479,"Ho":480,"isi":481,"Ġfuma":482,"Ġmosebetsi":483,"mu":484,"kolo":485,"ĠHo":486,"Ġbakeng":487,"tsang":488,"Ġlokela":489,"Ġfi":490,"olo":491,"Ġmong":492,"tshwa":493,"ku":494,"baka":495,"Ġyona":496,"Ġnngwe":497,"Ġpa":498,"li":499,"Ġpha":500,"mpa":501,"Ġfeela":502,"Mo":503,"ĠBa":504,"Ġmotho":505,"muso":506,"Ġmora":507,"Ġlate":508,"Ġtshebe":509,"pele":510,"Ġtlha":511,"Ġtsela":512,"Ġthe":513,"kgwa":514,"rwa":515,"Ġ2":516,"rolo":517,"lwe":518,"kge":519,"rika":520,"nang":521,"Ġdu":522,"Ġsebedisa":523,"Ġngo":524,"mela":525,"isa":526,"Ġra":527,"taba":528,"00":529,"Ġsetjhaba":530,"ĠKa":531,"moho":532,"Ġpe":533,"hiso":534,"Ġtsama":535,"Ġtlo":536,"wana":537,"ohle":538,"Ġto":539,"Ġbu":540,"Ġtswa":541,"hileng":542,"Ġtshwane":543,"Ġile":544,"ntswe":545,"ĠO":546,"Ġbole":547,"ntle":548,"Ġona":549,"Ġfo":550,"frika":551,"hela":552,"Ġntle":553,"ru":554,"Ġseng":555,"Ġbohlo":556,"kaha":557,"nane":558,"ĠE":559,"Ġmaemo":560,"nte":561,"Ġu":562,"Ġmaba":563,"Ġtha":564,"ny":565,"Ġrona":566,"ĠR":567,"ĠBorwa":568,"Ġqe":569,"Ġpuo":570,"ala":571,"phelo":572,"fi":573,"Ġhodi":574,"hoko":575,"Ġdintlha":576,"Ġnang":577,"Ġleka":578,"Ġnaha":579,"Ġtseo":580,"Ġempa":581,"Ġtshebetso":582,"Ġbonts":583,"Ġkge":584,"fn":585,"ĠKe":586,"jo":587,"Ha":588,"ĠAfrika":589,"Ġntse":590,"Ġbang":591,"Ġditaba":592,"Ġneng":593,"Ġtsona":594,"tu":595,"Ġmolao":596,"nse":597,"Ġfapa":598,"Ġfihle":599,"Ġmabapi":600,"hala":601,"oho":602,"qo":603,"kgatlo":604,"Ġmai":605,"Ġding":606,"Ġdipo":607,"beletso":608,"iso":609,"Ġbatla":610,"tsatsi":611,"Ġkopa":612,"Ġsebetsa":613,"Ġhlahi":614,"kgotla":615,"su":616,"Ġsi":617,"lelo":618,"fatsa":619,"ĠMolao":620,"LE":621,"Ġmatla":622,"Ġbohlokwa":623,"theo":624,"sedi":625,"Ġmmuso":626,"nete":627,"Ġtshehe":628,"Ġtjhelete":629,"hwe":630,"Ġmona":631,"Ġhoba":632,"Ġkopo":633,"Ġtsohle":634,"Ġbi":635,"ula":636,"Ġsehlo":637,"lweng":638,"futa":639,"Ġmmoho":640,"Ġlebi":641,"Ġitseng":642,"Ġdijo":643,"Ġtsena":644,"Ġphetha":645,"Ġtswe":646,"Ġmokgwa":647,"Ġnna":648,"Ġhantle":649,"bediso":650,"Ġkarolo":651,"Ġfeta":652,"Ġditshe":653,"Ġkgwe":654,"wang":655,"reng":656,"Ġmobu":657,"tlwa":658,"kgoni":659,"Ġtlhahiso":660,"sang":661,"hetseng":662,"nyane":663,"Ġseo":664,"Ġbophelo":665,"Ġntshe":666,"Ġhape":667,"Ġwe":668,"Ġditj":669,"tlw":670,"Ġti":671,"..":672,"helo":673,"Ġefe":674,"llwa":675,"Ġhloka":676,"hile":677,"Ġmang":678,"thollo":679,"llang":680,"belo":681,"Ġhloko":682,"Ġtaba":683,"peho":684,"Ka":685,"Ġbokgoni":686,"ve":687,"Ġdite":688,"Se":689,"Ġjwale":690,"Ke":691,"Ġselemo":692,"halo":693,"Ġfumana":694,"ĠNa":695,"Ġye":696,"Ġlefa":697,"Ġfeti":698,"Ġsena":699,"Ġso":700,"Ġetswa":701,"Ġmohla":702,"ĠMe":703,"Ġfana":704,"Ġdika":705,"Ġdipho":706,"Ġsebediswa":707,"tlwisi":708,"naneo":709,"je":710,"teng":711,"Ba":712,"pu":713,"Ġbana":714,"Ġtseba":715,"bopeho":716,"Ġhlalo":717,"ĠC":718,"ola":719,"Ġfapaneng":720,"thata":721,"thuti":722,"Ġno":723,"lemi":724,"setso":725,"polo":726,"Ġbontsha":727,"Ġmesebetsi":728,").":729,"Ġkgona":730,"Ġdipa":731,"sadi":732,"Ġnakong":733,"Ġnepa":734,"ano":735,"tsopele":736,"Ġyena":737,"mella":738,"mane":739,"sebedi":740,"meng":741,"melo":742,"Ġngata":743,"ĠI":744,"Ġmma":745,"Ġamo":746,"aka":747,"Ġtlame":748,"Ġhloke":749,"Ġlena":750,"Bo":751,"Ġbon":752,"Ġofe":753,"hlodi":754,"Ġhona":755,"Ġku":756,"Ġnka":757,"Ġdiko":758,"Ġditshebeletso":759,"heng":760,"Ġlatela":761,"Ġhodimo":762,"paki":763,"beng":764,"ithuti":765,"Ma":766,"nd":767,"nka":768,"nong":769,"nyana":770,"Ġtshebediso":771,"Ġditjhelete":772,"medi":773,"fapha":774,"Ġngwana":775,"kutlo":776,"Ġfoko":777,"letsa":778,"Ġqete":779,"Ġbaa":780,"nna":781,"Ġ19":782,"Ġjwang":783,"ĠRe":784,"Ġfeto":785,"kemi":786,"Ġkgu":787,"Ġthusa":788,"kelo":789,"hopolo":790,"ja":791,"Ġkgotso":792,"ena":793,"nwa":794,"Ġtu":795,"Ġditl":796,"Ġoo":797,"Ġwena":798,"Ġbolo":799,"Ġboemo":800,"Ġtho":801,"ngata":802,"Ġtle":803,"kara":804,"Ġkgolo":805,"Ġmaikutlo":806,"mong":807,"LO":808,"keho":809,"phi":810,"kare":811,"Ġtshwanetse":812,"Ġditho":813,"BO":814,"xt":815,"disa":816,"moro":817,"Ġlebitso":818,"SE":819,"Ġdike":820,"st":821,"</":822,"elo":823,"txt":824,"Ġhara":825,"ĠF":826,"Ġlona":827,"Ġdintho":828,"NG":829,"ĠKg":830,"Ġbaka":831,"Ġdilemo":832,"Ġdipuo":833,"Ġleko":834,"Ġkgwebo":835,"Ġ3":836,"Ġdito":837,"pelo":838,"Ġmantswe":839,"Ġama":840,"Ġnehela":841,"Ġsehlooho":842,"kiso":843,"Ġhobane":844,"hato":845,"Ġ200":846,"Ġtema":847,"ĠTe":848,"Ġdina":849,"Ġikge":850,"nyele":851,"Ġara":852,"ĠG":853,"Ġmetsi":854,"Ġdiphoso":855,"qe":856,"twa":857,"long":858,"Ġeba":859,"Ġnnete":860,"kase":861,"Ġsephe":862,"nyetso":863,"Ġbohle":864,"bela":865,"ngwa":866,"Ġdijothollo":867,"Ġshe":868,"fela":869,"lele":870,"Ġtloha":871,"Ġ'":872,"hae":873,"lwang":874,"mente":875,"ĠTshe":876,"hlahi":877,"rero":878,"Ġ\"":879,"Ġeng":880,"Ġtsamaiso":881,"Ġletsatsi":882,"Ġkena":883,"Ġtshi":884,"Ġbasebetsi":885,"Ġntho":886,"sebediswa":887,"bakeng":888,"kisa":889,"bile":890,"Ġfumane":891,"pole":892,"nyetla":893,"Ġdiphe":894,"ofela":895,"Na":896,"Ġboholo":897,"Ġsu":898,"Ġkgone":899,"Ġphaha":900,"Ġqo":901,"Ġtaolo":902,"Ġntla":903,"Ġsebaka":904,"jwa":905,"ana":906,"ĠNaha":907,"Ġetsang":908,"Ġru":909,"Ġkenyele":910,"Ġkgotha":911,"thi":912,"tshwao":913,"on":914,"Ġsebopeho":915,"sitsweng":916,"Ġbolela":917,"Ġsona":918,"Ġleo":919,"Ġmola":920,"miti":921,"DI":922,"Ġpro":923,"Ġutlwa":924,"ise":925,"peng":926,"qa":927,"sitswe":928,"Ġham":929,"Ġlebe":930,"Ġkaofela":931,"Ġtlasa":932,"01":933,"Ġbotle":934,"Ġlatelang":935,"Ġtjena":936,"Ġbua":937,"bang":938,"Ġthuso":939,"seding":940,"Ġtlameha":941,"de":942,"Ġhe":943,"Ġnete":944,"Ġhoo":945,"Ġmofuta":946,"ĠL":947,"Ġntshetsopele":948,"halang":949,"Ġqa":950,"Ġdipotso":951,"Ġlokelang":952,"HA":953,"thuta":954,"ntsho":955,"),":956,"Ġthuto":957,"SEBO":958,"Ġ/":959,"qoqo":960,"Ġnya":961,"ĠJ":962,"Ġmehlodi":963,"leseding":964,"Ġnomoro":965,"Ġja":966,"Ġfihlela":967,"sho":968,"Ġtlase":969,"kemisetso":970,"LELO":971,"Ġdipe":972,"Ġbile":973,"ile":974,"tate":975,"Ġmotheo":976,"Ġmoralo":977,"Ġtlhoko":978,"SEBOLELO":979,"Ġileng":980,"Ġhlahisa":981,"one":982,"Ġmokgatlo":983,"lwana":984,"Ġtemo":985,"kahano":986,"Ġsekolo":987,"kgetho":988,"pho":989,"sitse":990,"Ġlebaka":991,"Ġpho":992,"Ġteka":993,"maha":994,"Ġmeng":995,"Ġbao":996,"biso":997,"nolo":998,"ĠSebo":999,"Ġtshebetsong":1000,"Ġnepahetseng":1001,"shene":1002,"Ġpalo":1003,"Ġlefatshe":1004,"Ġmekgwa":1005,"iti":1006,"swe":1007,"Ġthi":1008,"karabelo":1009,"vense":1010,"Ġ4":1011,"Ġkenye":1012,"ĠLekgotla":1013,"tsoho":1014,"pola":1015,"Ġhodima":1016,"abo":1017,"odi":1018,"Ġlekgotla":1019,"Ġao":1020,"Ġdife":1021,"Ġana":1022,"Ġtlho":1023,"putso":1024,"tsahalo":1025,"Ġlekaneng":1026,"Ġnye":1027,"kgwe":1028,"tlwisiso":1029,"Ġsetho":1030,"Ġmekgatlo":1031,"nyo":1032,"tona":1033,"romo":1034,"Ġ5":1035,"Ġmolemo":1036,"Ġntjha":1037,"bane":1038,"Ġfihla":1039,"Ġtshebeletso":1040,"elele":1041,"Ġeke":1042,"Ġmathata":1043,"Ġbong":1044,"koloho":1045,"ĠLefapha":1046,"Ġmorao":1047,"mello":1048,"Ġngodi":1049,"Ġtsebo":1050,"Ġdula":1051,"tleng":1052,"kileng":1053,"Ġkotsi":1054,"lapa":1055,"Ġmehla":1056,"Ġhlokehang":1057,"Ġeka":1058,"ĠKo":1059,"hlahiswa":1060,"Ġboe":1061,"Ġkenya":1062,"Ġmasi":1063,"tswadi":1064,"Re":1065,"ĠPala":1066,"Ġphethaha":1067,"Ġdithu":1068,"fatsang":1069,"Ġutlwisi":1070,"sano":1071,"tswang":1072,"hola":1073,"Ġtlhahisoleseding":1074,"sotho":1075,"Ġmehopolo":1076,"Ġrata":1077,"Ġhammoho":1078,"Ġkae":1079,"hetse":1080,"elelo":1081,"Ġfetileng":1082,"Ġtlwa":1083,"Ġmatsatsi":1084,"ĠY":1085,"leha":1086,"Ġpedi":1087,"Ġtshire":1088,"Ġlehla":1089,"Ġetse":1090,"tara":1091,"Ġkenyelle":1092,"tata":1093,"Ġdisebediswa":1094,"ntsweng":1095,"pheng":1096,"Ġmefuta":1097,"BA":1098,"Ġkang":1099,"Ġtswela":1100,"alo":1101,"padi":1102,"Ġbopaki":1103,"komane":1104,"Ġnetefatsa":1105,"hale":1106,"Ġhlalosa":1107,"Ġbaahi":1108,"tlakase":1109,"Ġmoqoqo":1110,"Ġlatelwa":1111,"Ġmaikemisetso":1112,"Ġlefe":1113,"Ġyohle":1114,"lela":1115,"MA":1116,"Ġleba":1117,"Ġsepheo":1118,"Ġtswang":1119,"fisi":1120,"Ġen":1121,"dimo":1122,"Tshe":1123,"Ġtlang":1124,"Ġqeto":1125,"Ġitshe":1126,"llong":1127,"Ġdumella":1128,"Ġmosebetsing":1129,"Ġbalemi":1130,"Ġbopi":1131,"HABA":1132,"ge":1133,"Ġboikarabelo":1134,"...":1135,"Ġd":1136,"tswana":1137,"Ġngola":1138,"HABANG":1139,"Ġditlhoko":1140,"Ġbaithuti":1141,"sing":1142,"rofe":1143,"Ġnts":1144,"kgu":1145,"tlala":1146,"Ġhlwa":1147,"Ġmotlakase":1148,"hloko":1149,"Me":1150,"tsong":1151,"tsama":1152,"Ġbonnete":1153,"Ġmabaka":1154,"nda":1155,"Ġw":1156,"Ġntlha":1157,"ruo":1158,"vi":1159,"THABANG":1160,"kane":1161,"Ġleano":1162,"Ġkutlwisiso":1163,"rabo":1164,"SA":1165,"tjhabeng":1166,"swang":1167,"nngwa":1168,"Ġtsebe":1169,"Ġtharo":1170,"Ġsebetsang":1171,"Ġpeo":1172,"Ġmatshwao":1173,"ntsha":1174,"Ġbontshang":1175,"Ġmahla":1176,"Ġhlokaha":1177,"Ġhaeba":1178,"Ġmoelelo":1179,"mora":1180,"ĠTha":1181,"Ġqala":1182,"Ġpakeng":1183,"Ġtlhokomelo":1184,"ce":1185,"eba":1186,"Ġtshehetso":1187,"Ġtsho":1188,"Ġ199":1189,"Ġfaele":1190,"Ġpu":1191,"Ġmaha":1192,"ĠPalamente":1193,"010":1194,"Ġlenaneo":1195,"Ġmelao":1196,"Ġaraba":1197,"Ġmofu":1198,"Ġlefu":1199,"Ġdikgo":1200,"Ġmoko":1201,"Ġkgale":1202,"Ġkgwedi":1203,"ste":1204,"ĠMmuso":1205,"tjhe":1206,"kela":1207,"ĠSetjhaba":1208,"Ġpotla":1209,".)":1210,"setsa":1211,"Ġdihlo":1212,"Ġbotjha":1213,"Ġtsamaya":1214,"Ġditse":1215,"Ġseabo":1216,"Bula":1217,"thileng":1218,"Ġhlahe":1219,"Ġtshwe":1220,"Ġithuta":1221,"Ġkgokahano":1222,"Ġdipolelo":1223,"seng":1224,"Ġdithe":1225,"yo":1226,"bitso":1227,"tong":1228,"Ġfihlella":1229,"kere":1230,"folo":1231,"Ġmera":1232,"jeno":1233,"Ġbatlang":1234,"ĠD":1235,"Ġtjhe":1236,"Ġsebediswang":1237,"Ġ6":1238,"letsi":1239,"nyewe":1240,"Ġmosadi":1241,"ĠPuo":1242,"ĠSena":1243,"toho":1244,"Ġhaellang":1245,"Ġkgetho":1246,"ntlha":1247,"Ġkwa":1248,"rato":1249,"Ġtelele":1250,"rasi":1251,"Ġs":1252,"kae":1253,"Ġmela":1254,"taele":1255,"Ġkgahla":1256,"karetso":1257,"Ġmehato":1258,"Ġbaba":1259,"sita":1260,"Ġboemong":1261,"Ġhang":1262,"ĠPo":1263,"ili":1264,"ĠThu":1265,"Ġebe":1266,"Ġmonna":1267,"Ġtshehetsa":1268,"Ġsheba":1269,"Ġmokga":1270,"Ġhlahlo":1271,"Ġdikarolo":1272,"Ġbatjha":1273,"raka":1274,"Ġlao":1275,"misa":1276,"Ġlengolo":1277,"Ġbasadi":1278,"sisa":1279,"Ġitshetle":1280,"Ġnehelana":1281,"Ġdikgwe":1282,"Ġletho":1283,"ello":1284,"ditsweng":1285,"Ġrome":1286,"Ġmananeo":1287,"fatso":1288,"Ġntshetsa":1289,"tolo":1290,"mano":1291,"isano":1292,"kile":1293,"tjhi":1294,"Ġkgotsofatsang":1295,"polesa":1296,"Ġloketseng":1297,"ca":1298,"Ġhle":1299,"Ġtso":1300,"Ġdik":1301,"Ġpolo":1302,"buwa":1303,"Ġikgethileng":1304,"Ġmonyetla":1305,"Ġmaemong":1306,"Ġsebakeng":1307,"tlolo":1308,"Ġbeha":1309,"Ġphu":1310,"phu":1311,"lopele":1312,"Ġhabo":1313,"ĠNg":1314,"Ġtsebi":1315,"Ġdinyewe":1316,"Ġhangata":1317,"ĠMma":1318,"tlalo":1319,"Ġboima":1320,"Ġsetjhabeng":1321,"thang":1322,"Ġphatlala":1323,"Ġame":1324,"betso":1325,"Ġphahameng":1326,"Ġbala":1327,"Ġike":1328,"Ġetsahala":1329,"Ġdume":1330,"jeke":1331,"tere":1332,"tswalle":1333,"Ġhlokang":1334,"ĠSA":1335,"Ġtshware":1336,"Ġtikoloho":1337,"Ġbobedi":1338,"Ġhlophi":1339,"Ġtshehetsang":1340,"Ġboleng":1341,"rovense":1342,"Ġtshireletso":1343,"Ġlelapa":1344,"Ġbae":1345,"lu":1346,"mang":1347,"ou":1348,"Ġbothata":1349,"MS":1350,"Ġisa":1351,"Ġdipehelo":1352,"Ġbora":1353,"Ġthata":1354,"hlahlo":1355,"ĠPhe":1356,"laodi":1357,"Ġmaka":1358,"Ġtumello":1359,"hadi":1360,"tion":1361,"tshwaro":1362,"Ġlapeng":1363,"Ġeme":1364,"Ġhlokomela":1365,"tlele":1366,"kana":1367,"tela":1368,"thokiso":1369,"in":1370,"tsana":1371,"kong":1372,"Ġdibaka":1373,"tshetsopele":1374,"Ġpoone":1375,"Ġtokelo":1376,"resi":1377,"Ġditlho":1378,"qapelo":1379,"ĠTj":1380,"kele":1381,"Ġiko":1382,"Ġboiqapelo":1383,"tulo":1384,"ĠTema":1385,"Ġpotso":1386,"ĠKga":1387,"Ġntlafatsa":1388,"reside":1389,"eo":1390,"thwa":1391,"kanyetso":1392,"ĠTse":1393,"Ġthepa":1394,"Ġ10":1395,"ĠSebolelo":1396,"hlwa":1397,"Ġpelo":1398,"mellano":1399,"Ġutlwisisa":1400,"pala":1401,"Ġetswang":1402,"Ġfokolang":1403,"ĠPa":1404,"puo":1405,"Ġkajeno":1406,"ĠHona":1407,"tleho":1408,"sebeletsi":1409,"Ġsehlopha":1410,"Ġsetso":1411,"Ġkene":1412,"Ġpola":1413,"KE":1414,"qhe":1415,"ĠTl":1416,"residente":1417,"ji":1418,"Ġntseng":1419,"Ġdita":1420,"Ġnke":1421,"Ġkha":1422,"Ġele":1423,"pang":1424,"Ġmatsoho":1425,"Ġamanang":1426,"nt":1427,"Ġditema":1428,"ufi":1429,"Ġtsepa":1430,"reki":1431,"Ġnku":1432,"Ġlekola":1433,"Ġmasimo":1434,"leho":1435,"dima":1436,"Ġforomo":1437,"Ġfatshe":1438,"Ġmoruo":1439,"oto":1440,"Ġsetaele":1441,"Ġsele":1442,"Ġnaheng":1443,"Ġtjha":1444,"kahare":1445,"ileng":1446,"Ġboo":1447,"Ġmoya":1448,"Ġbohloko":1449,"Ġleha":1450,"Ġdibopeho":1451,"Ġaro":1452,"ĠJwa":1453,"ĠThabang":1454,"2010":1455,"lli":1456,"tshi":1457,"Ġebile":1458,"Ġthoko":1459,"Ġdiketsahalo":1460,"Ġbangata":1461,".\"":1462,"Ġtsi":1463,"Ġbatswadi":1464,"tshwane":1465,"Ġtsamaisa":1466,"Ġbotlalo":1467,"Ġetswe":1468,"ĠBophelo":1469,"Ġtshwanang":1470,"Ġmorero":1471,"rolwana":1472,"ĠTo":1473,"Ġamohela":1474,"ĠW":1475,"hlelo":1476,"kgotleng":1477,"Ġdinako":1478,"Ġin":1479,"ĠNtshetsopele":1480,"ofolo":1481,"Ġlaola":1482,"ĠLetona":1483,"Ġkakaretso":1484,"Ġsefe":1485,"EMS":1486,"Te":1487,"Ġbotho":1488,"Ġboela":1489,"Ġlesedi":1490,"Ġntate":1491,"Ġlehlako":1492,"Ġbonolo":1493,"Ġmoe":1494,"Ġmenyetla":1495,"Ġlokisa":1496,"piso":1497,"Ġhlokeha":1498,"mmuso":1499,"Ġdimela":1500,"Ġmolemi":1501,"Ġmoithuti":1502,"Ġmohlala":1503,"shome":1504,"Ġv":1505,"Ġhaufi":1506,"mohe":1507,"Ġhlaha":1508,"Ġtlhaho":1509,"Ġtshwanetseng":1510,"laya":1511,"hatsa":1512,"lletsweng":1513,"Ġamohele":1514,"Ġtata":1515,"tshwantsho":1516,"Ġamohe":1517,"Ġmahareng":1518,"Ġboetse":1519,"shi":1520,"Ġditokelo":1521,"Ġ8":1522,"tlisi":1523,"Ġtshwanela":1524,"Ġsire":1525,"Ġmpe":1526,"Ġlebo":1527,"ditswe":1528,"Ġdibakeng":1529,"nyetsa":1530,"letseng":1531,"Ġlentswe":1532,"kgahla":1533,"Ġhlokome":1534,"03":1535,"tsho":1536,"Ġkeng":1537,"Ġmetso":1538,"Ġkolo":1539,"Ġ00":1540,"lae":1541,"ĠTa":1542,"ditse":1543,"Ġmatlo":1544,"sume":1545,"tsha":1546,"Ġhokaha":1547,"Ġentswe":1548,"Ġkarabo":1549,"Ġhlakileng":1550,"Ġsebedise":1551,"Ġmohlahlo":1552,"Ġikgethang":1553,"Ġbodu":1554,"ran":1555,"hilweng":1556,"Ġdikolo":1557,"rei":1558,"Ġrere":1559,"Ġmobung":1560,"loso":1561,"Ġenwa":1562,"Ġmane":1563,"Ġphela":1564,"Ġpolelo":1565,"riana":1566,"Ġtshwara":1567,"Ġbongaka":1568,"hlooho":1569,"Kg":1570,"Ġanane":1571,"Ġsemmuso":1572,"bala":1573,"ratswana":1574,"ĠGEMS":1575,"MMA":1576,"tsehang":1577,"uni":1578,"Ġika":1579,"Ġtlwaele":1580,"Ġtlhahisong":1581,"Ġmmalwa":1582,"hlanka":1583,"Ġkoro":1584,"rata":1585,"ĠBopaki":1586,"Ġngotsweng":1587,"Ng":1588,"nwang":1589,"Ġhlooho":1590,"Ġphethe":1591,"Ġphethahetseng":1592,"Ġsefa":1593,"Ġfela":1594,"tlontswe":1595,"Ġkenyeletsa":1596,"Ġbale":1597,"rofense":1598,"Ġkamo":1599,"Ġbatsi":1600,"Ġkho":1601,"Ġsehalo":1602,"Ġmoa":1603,"Ġje":1604,"lletse":1605,"Ġselemong":1606,"Ġqetellong":1607,"ang":1608,"uwa":1609,"Ġatle":1610,"tapele":1611,"phara":1612,"Ġpolokeho":1613,"mohedi":1614,"Ġmahlo":1615,"fike":1616,"phiso":1617,"Ġlemo":1618,"Ġditlha":1619,"hlala":1620,"Ġjwaloka":1621,"Ġboloka":1622,"Ġmahola":1623,"Ġngaka":1624,"Ġfokotsa":1625,"11":1626,"SO":1627,"Ġlekgetho":1628,"pano":1629,"Ġ7":1630,"kwana":1631,"tsamaisi":1632,"lomo":1633,"hlolo":1634,"25":1635,"Ġmotse":1636,"Ġofisi":1637,"forika":1638,"fikeiti":1639,"mme":1640,"lefa":1641,"Ġtlisa":1642,"presidente":1643,"Ġmmo":1644,"shena":1645,"GO":1646,"rena":1647,"Ġboitshwaro":1648,"Ġmokopi":1649,"Ġkgahlanong":1650,"Ġtlatse":1651,"tlheng":1652,"ĠBotle":1653,"Ġnahana":1654,"Ġmerero":1655,"Ġbongata":1656,"Ġfetang":1657,"Ġentsweng":1658,"Ġfetisisa":1659,"Ġtshwae":1660,"mpha":1661,"Ġreng":1662,"bedisano":1663,"Ġkopane":1664,"hli":1665,"Ġakare":1666,"toro":1667,"loko":1668,"mpi":1669,"shwe":1670,"Ġlee":1671,"Ġdikahare":1672,"disano":1673,"rae":1674,"fatsi":1675,"nyalo":1676,"Ġkwe":1677,"Ġtekanyetso":1678,"Ġdipapadi":1679,"Tse":1680,"shwa":1681,"kapa":1682,"or":1683,"ralo":1684,"Ġditokomane":1685,"Ġsebele":1686,"Ġamehang":1687,"200":1688,"Ġbone":1689,"tiki":1690,"nweng":1691,"towa":1692,"molao":1693,"tsebe":1694,"bileng":1695,"Ġsekolong":1696,"sha":1697,"baneng":1698,"Ġfuwa":1699,"Ġtswelopele":1700,"Ġdikga":1701,"Ġdihlahiswa":1702,"ĠHla":1703,"Ġkgetha":1704,"nwe":1705,"Ġbonahala":1706,"Ġdiphetoho":1707,"Ġditsela":1708,"MO":1709,"koto":1710,"Ġ12":1711,"mpani":1712,"Molao":1713,"Ġtiisa":1714,"Ġmotjha":1715,"ĠBatho":1716,"Ġraro":1717,"Ġphethahala":1718,"Ġdia":1719,"Ġite":1720,"Ġhaholoholo":1721,"Ġtoto":1722,"Po":1723,"Ġfanang":1724,"jise":1725,"Ġbopa":1726,"fello":1727,"thara":1728,"Ġ000":1729,"nu":1730,"Ġkere":1731,"ĠThe":1732,"lletseng":1733,"kwe":1734,"tloko":1735,"tshebeletso":1736,"Ġdiphoofolo":1737,"Ġmolato":1738,"ĠQ":1739,"Ġbatle":1740,"Ġsekgahla":1741,"Ġ9":1742,"Ġbohla":1743,"bele":1744,"ring":1745,"Ġentse":1746,"Ġdipha":1747,"Ġbaamohedi":1748,"Ġdilemong":1749,"PA":1750,"Ġdino":1751,"Ġmafu":1752,"Ġkgodi":1753,"Ġkgate":1754,"ZA":1755,"ĠNe":1756,"Ġbopilweng":1757,"Bala":1758,"lane":1759,"GOV":1760,"Ġmmele":1761,"Ġboitse":1762,"jisetara":1763,"letse":1764,"Ġsekase":1765,"kgethe":1766,"Ġdihlopha":1767,"hong":1768,"Ġsebedisitswe":1769,"Ġditlhokeho":1770,"RM":1771,"lesa":1772,"Ġhopola":1773,"Ġkaha":1774,"lelele":1775,"Ġfumaneha":1776,"ĠJwale":1777,"Ġtlwaelehileng":1778,"Ġdiqe":1779,"Ġbophara":1780,"Ġbuisa":1781,"ĠMolaotheo":1782,"Ġtekano":1783,"Ġthibela":1784,"ĠYA":1785,"ĠThuto":1786,"kefe":1787,"ĠLeano":1788,"fong":1789,"Ġphaello":1790,"tlokotsebe":1791,"Ġbopilwe":1792,"BN":1793,"Ġromela":1794,"Ġmohlahlobuwa":1795,"Ġboha":1796,"ĠBoi":1797,"BNRM":1798,"Ġjala":1799,"ĠDitaba":1800,"lletsa":1801,"Ko":1802,"Ġohle":1803,"Ġmafapha":1804,"Ġtshebedisano":1805,"Ġtoka":1806,"Ġmangata":1807,"sti":1808,"Ġhohle":1809,"Ġtsha":1810,"Ġmeno":1811,"nyehelo":1812,"ĠRa":1813,"Ġikemi":1814,"Ġreka":1815,"Ġloki":1816,"Ġhlaola":1817,"Ġlebisa":1818,":(":1819,"mv":1820,"nne":1821,"Ġletsoho":1822,"Ġsae":1823,"siu":1824,"ĠMopresidente":1825,"ĠMaemo":1826,"Ġdumela":1827,"Ġngodiso":1828,"hleng":1829,"Ġc":1830,"losa":1831,"dile":1832,"Ġdibo":1833,"Ġlahle":1834,"nyenyane":1835,"MMASEBOLELO":1836,"ilweng":1837,"Ġkatleho":1838,"Ġmabitso":1839,"tella":1840,"hihle":1841,"tifikeiti":1842,"Ġmatlafatsa":1843,"Ġdemo":1844,"oha":1845,"mana":1846,"hisa":1847,"Ġsebetsana":1848,"Ġnne":1849,"tlebo":1850,"ĠAforika":1851,"Ġeketse":1852,"ĠKho":1853,"Ġdiphu":1854,"sebedisi":1855,"mvula":1856,"etsa":1857,"Ġditla":1858,"Haeba":1859,"Ġkarolong":1860,"jalefa":1861,"ere":1862,"Ġhi":1863,"tiso":1864,"Ġhlokahala":1865,"iswa":1866,"sepala":1867,"ĠPha":1868,"Ġkopano":1869,"tjhere":1870,"Hla":1871,"Ġhoja":1872,"tisa":1873,"ĠCBNRM":1874,"Ġfetoha":1875,"Ġprovense":1876,"Ġdithuto":1877,"lase":1878,"Ġeketsa":1879,"Ġmoke":1880,"bong":1881,"ĠEmpa":1882,"Ġamang":1883,"Ġlei":1884,"Ġkuno":1885,"Ġkgothaletsa":1886,"Ġphethahatso":1887,"Ġkoloi":1888,"Ġhola":1889,"kwang":1890,"Ġdikgetho":1891,"Ġlae":1892,"Ġsephetho":1893,"ĠTshebediso":1894,"mahanya":1895,"Ġbonyane":1896,"ndaste":1897,"Ġdikgwedi":1898,"an":1899,"Ġ0":1900,"Ġdipu":1901,"Ġbabatsehang":1902,"hihlello":1903,"ngodi":1904,"Ġmoholo":1905,"rojeke":1906,"pong":1907,"metseng":1908,"ĠLefa":1909,"Ġdiqeto":1910,"Ġditha":1911,"ĠKha":1912,"Ġtlotlontswe":1913,"llwang":1914,"Ġlefapha":1915,"ĠIthuta":1916,"Ġtsebisa":1917,"Ġesita":1918,"hello":1919,"Ġboke":1920,"Ġmole":1921,"Ġhare":1922,"Ġ15":1923,"kwanyana":1924,"Ġhobaneng":1925,"Ġkenyelletsa":1926,"th":1927,"Ġlwa":1928,"Ġtshu":1929,"Ġtaelo":1930,"qheku":1931,"LA":1932,"Ġmasa":1933,"Ġiphu":1934,"jothollo":1935,"nng":1936,"ĠHaeba":1937,"Ġtlamehile":1938,"Ġtataiso":1939,"Ġbotsa":1940,"Ġmatjhaba":1941,"Ġmekga":1942,"welo":1943,"kgabane":1944,"Ġmengata":1945,"Ġselehae":1946,"Pula":1947,"ngo":1948,"Ġtsebiso":1949,"Ġfapana":1950,"Ġsimo":1951,"Ġdipakeng":1952,"Ġfetola":1953,"Ġtumellano":1954,"tlisiso":1955,"Ġkenngwa":1956,"Ġmeriana":1957,"ĠDitshebeletso":1958,"ĠKarolo":1959,"Ġhlahiswa":1960,"ĠTjhe":1961,"er":1962,"Ġqetelo":1963,"ane":1964,"qepheng":1965,"ĠNgola":1966,"Ġdibe":1967,"Ġtshepa":1968,"ĠMotheo":1969,"Ġfosa":1970,"Ġmasimong":1971,"Ġentseng":1972,"ĠTlha":1973,"etsi":1974,"Ġntata":1975,"Ġmara":1976,"pedi":1977,"Ġphahello":1978,"Imvula":1979,"hemi":1980,"Motho":1981,"Ġtheko":1982,"Ġlenane":1983,"rekere":1984,"Ġpula":1985,"Ġnepahetse":1986,"Ġafe":1987,"Ġbofu":1988,"Ġkele":1989,"nono":1990,"sete":1991,"Ġipo":1992,"Ġiku":1993,"fani":1994,"Ġdikotsi":1995,"kha":1996,"llwe":1997,"sae":1998,"hlomong":1999,"sheneng":2000,"Ġruta":2001,"Ġekasita":2002,"Ġbodulo":2003,"Ġlenyalo":2004,"Ġee":2005,"Ġmaano":2006,"tjhu":2007,"bedisa":2008,"Ġpotlako":2009,"ntse":2010,"Ġkarolwana":2011,"Ġporae":2012,"helano":2013,"Ġlekotswe":2014,"Ġntsha":2015,"tjhine":2016,"Tl":2017,"sale":2018,"ĠMme":2019,"Ġreretsweng":2020,"fisa":2021,"ze":2022,"Ġbanna":2023,"Ġmala":2024,"onal":2025,"Ġboletsweng":2026,"Ġsehlahiswa":2027,"Ġketsahalo":2028,"Ġhlahang":2029,"mpho":2030,"helwa":2031,"ĠBili":2032,"Ġmohlanka":2033,"Ġ30":2034,"Ġhlwe":2035,"Ġdifo":2036,"Ġbotlokotsebe":2037,"rense":2038,"Ġneha":2039,"kgolo":2040,"niki":2041,"Ġkgutshwane":2042,"ĠSeboka":2043,"Ġphethahatsa":2044,"tjwa":2045,"Ġ18":2046,"Ġditjeo":2047,"Ġdinaha":2048,"Ġwona":2049,"Ġhlahella":2050,"uwang":2051,"katshe":2052,"Ġfele":2053,"hlano":2054,"Ġkgothale":2055,"Ġleshome":2056,"Ġmelemo":2057,"ĠMosebetsi":2058,"ĠMoralo":2059,"Ġseke":2060,"Ġmabedi":2061,"bana":2062,"Ġkgatello":2063,"Ġmpa":2064,"Ġeso":2065,"Ġtsamaela":2066,"Ġkgethe":2067,"ID":2068,"IV":2069,"RO":2070,"Ġkala":2071,"kodi":2072,"ĠNo":2073,"mphe":2074,"Ġ,":2075,"fapa":2076,"Ġbehwa":2077,"Ġmongodi":2078,"Ġlefatsheng":2079,"Ġhlwaya":2080,"Ġikemisedi":2081,"Ġleihlo":2082,"lisi":2083,"nsi":2084,"Ġkamora":2085,"Ġmoleng":2086,"Ġipa":2087,"nomi":2088,"Ġhloleha":2089,"Ġmangolo":2090,"PulaImvula":2091,"katsheko":2092,"Ġotlolo":2093,"Ġnakwana":2094,"Ġreri":2095,"ĠSesotho":2096,"Ġmonga":2097,"Ġtshwanelo":2098,"Ġrarolla":2099,"Ġlema":2100,"Ġdithuso":2101,"OT":2102,"ubu":2103,"kala":2104,"Ġsebetse":2105,"Ġmonate":2106,"hlahlobi":2107,"Ġkgodisang":2108,"al":2109,"ĠTshebeletso":2110,"PALE":2111,"Ġdiphuputso":2112,"Ġpela":2113,"thaha":2114,"Ġtli":2115,"sama":2116,"sitseng":2117,"Ġilo":2118,"ĠHIV":2119,"Ġkgutl":2120,"Ġthothokiso":2121,"Ġitshetlehile":2122,"obo":2123,"Ġmohato":2124,"Ġhaka":2125,"moholo":2126,"tabelo":2127,"nyolo":2128,"jwale":2129,"Ġboma":2130,"tional":2131,"jwalo":2132,"Ġkenyelletswa":2133,"Ġmeralo":2134,"Ġekasitana":2135,"PALESA":2136,"WE":2137,"Ġditshi":2138,"fetsa":2139,"ĠTshi":2140,"phetho":2141,"Ġtabeng":2142,"lwetse":2143,"Ġsebedisang":2144,"Ġqeta":2145,"ĠKgo":2146,"Ġtlhokeho":2147,"LLE":2148,"ua":2149,"Ġbote":2150,"Ġhana":2151,"Ġbuisana":2152,"ci":2153,"teko":2154,"Ġpale":2155,"Ġfapafapa":2156,"phihlelo":2157,"kerasi":2158,"hilwe":2159,"hlopha":2160,"Ġbathong":2161,"Ġfumanwa":2162,"Ġkgonang":2163,"Ġtlwaelo":2164,"Ġnkuwa":2165,"ntoro":2166,"Ġlefi":2167,"Ġmopele":2168,"Ġkenang":2169,"Ġfane":2170,"ĠDiko":2171,"Ġtshwarwa":2172,"Ġtekolo":2173,"Ġtlhaloso":2174,"Ġpepe":2175,"Ġtokomane":2176,"Ġdikopo":2177,"Jwa":2178,"nngwe":2179,"Ġditsi":2180,"Ġhlokolo":2181,"ĠLenaneo":2182,"ĠPolo":2183,"BOKE":2184,"Ġdipuisano":2185,"BOKELLE":2186,"au":2187,"da":2188,"Ġtsw":2189,"Ġmafa":2190,"kola":2191,"petlele":2192,"bisa":2193,"Ġkomiti":2194,"Ġmongobo":2195,"nyi":2196,"Ġhlokahalang":2197,"ee":2198,"Ġri":2199}