{
  "version": "1.0",
  "truncation": null,
  "padding": null,
  "added_tokens": [
    {
      "id": 0,
      "content": "<|endoftext|>",
      "single_word": false,
      "lstrip": false,
      "rstrip": false,
      "normalized": false,
      "special": true
    },
    {
      "id": 1,
      "content": "[PAD]",
      "single_word": false,
      "lstrip": false,
      "rstrip": false,
      "normalized": false,
      "special": true
    },
    {
      "id": 2,
      "content": "[MASK]",
      "single_word": false,
      "lstrip": false,
      "rstrip": false,
      "normalized": false,
      "special": true
    }
  ],
  "normalizer": null,
  "pre_tokenizer": {
    "type": "ByteLevel",
    "add_prefix_space": false,
    "trim_offsets": true,
    "use_regex": true
  },
  "post_processor": {
    "type": "ByteLevel",
    "add_prefix_space": true,
    "trim_offsets": false,
    "use_regex": true
  },
  "decoder": {
    "type": "ByteLevel",
    "add_prefix_space": true,
    "trim_offsets": true,
    "use_regex": true
  },
  "model": {
    "type": "BPE",
    "dropout": null,
    "unk_token": null,
    "continuing_subword_prefix": "",
    "end_of_word_suffix": "",
    "fuse_unk": false,
    "vocab": {
      "<|endoftext|>": 0,
      "[PAD]": 1,
      "[MASK]": 2,
      "!": 3,
      "\"": 4,
      "#": 5,
      "$": 6,
      "%": 7,
      "&": 8,
      "'": 9,
      "(": 10,
      ")": 11,
      "*": 12,
      "+": 13,
      ",": 14,
      "-": 15,
      ".": 16,
      "/": 17,
      "0": 18,
      "1": 19,
      "2": 20,
      "3": 21,
      "4": 22,
      "5": 23,
      "6": 24,
      "7": 25,
      "8": 26,
      "9": 27,
      ":": 28,
      ";": 29,
      "<": 30,
      "=": 31,
      ">": 32,
      "?": 33,
      "@": 34,
      "A": 35,
      "B": 36,
      "C": 37,
      "D": 38,
      "E": 39,
      "F": 40,
      "G": 41,
      "H": 42,
      "I": 43,
      "J": 44,
      "K": 45,
      "L": 46,
      "M": 47,
      "N": 48,
      "O": 49,
      "P": 50,
      "Q": 51,
      "R": 52,
      "S": 53,
      "T": 54,
      "U": 55,
      "V": 56,
      "W": 57,
      "X": 58,
      "Y": 59,
      "Z": 60,
      "[": 61,
      "\\": 62,
      "]": 63,
      "^": 64,
      "_": 65,
      "`": 66,
      "a": 67,
      "b": 68,
      "c": 69,
      "d": 70,
      "e": 71,
      "f": 72,
      "g": 73,
      "h": 74,
      "i": 75,
      "j": 76,
      "k": 77,
      "l": 78,
      "m": 79,
      "n": 80,
      "o": 81,
      "p": 82,
      "q": 83,
      "r": 84,
      "s": 85,
      "t": 86,
      "u": 87,
      "v": 88,
      "w": 89,
      "x": 90,
      "y": 91,
      "z": 92,
      "{": 93,
      "|": 94,
      "}": 95,
      "~": 96,
      "¡": 97,
      "¢": 98,
      "£": 99,
      "¤": 100,
      "¥": 101,
      "¦": 102,
      "§": 103,
      "¨": 104,
      "©": 105,
      "ª": 106,
      "«": 107,
      "¬": 108,
      "®": 109,
      "¯": 110,
      "°": 111,
      "±": 112,
      "²": 113,
      "³": 114,
      "´": 115,
      "µ": 116,
      "¶": 117,
      "·": 118,
      "¸": 119,
      "¹": 120,
      "º": 121,
      "»": 122,
      "¼": 123,
      "½": 124,
      "¾": 125,
      "¿": 126,
      "À": 127,
      "Á": 128,
      "Â": 129,
      "Ã": 130,
      "Ä": 131,
      "Å": 132,
      "Æ": 133,
      "Ç": 134,
      "È": 135,
      "É": 136,
      "Ê": 137,
      "Ë": 138,
      "Ì": 139,
      "Í": 140,
      "Î": 141,
      "Ï": 142,
      "Ð": 143,
      "Ñ": 144,
      "Ò": 145,
      "Ó": 146,
      "Ô": 147,
      "Õ": 148,
      "Ö": 149,
      "×": 150,
      "Ø": 151,
      "Ù": 152,
      "Ú": 153,
      "Û": 154,
      "Ü": 155,
      "Ý": 156,
      "Þ": 157,
      "ß": 158,
      "à": 159,
      "á": 160,
      "â": 161,
      "ã": 162,
      "ä": 163,
      "å": 164,
      "æ": 165,
      "ç": 166,
      "è": 167,
      "é": 168,
      "ê": 169,
      "ë": 170,
      "ì": 171,
      "í": 172,
      "î": 173,
      "ï": 174,
      "ð": 175,
      "ñ": 176,
      "ò": 177,
      "ó": 178,
      "ô": 179,
      "õ": 180,
      "ö": 181,
      "÷": 182,
      "ø": 183,
      "ù": 184,
      "ú": 185,
      "û": 186,
      "ü": 187,
      "ý": 188,
      "þ": 189,
      "ÿ": 190,
      "Ā": 191,
      "ā": 192,
      "Ă": 193,
      "ă": 194,
      "Ą": 195,
      "ą": 196,
      "Ć": 197,
      "ć": 198,
      "Ĉ": 199,
      "ĉ": 200,
      "Ċ": 201,
      "ċ": 202,
      "Č": 203,
      "č": 204,
      "Ď": 205,
      "ď": 206,
      "Đ": 207,
      "đ": 208,
      "Ē": 209,
      "ē": 210,
      "Ĕ": 211,
      "ĕ": 212,
      "Ė": 213,
      "ė": 214,
      "Ę": 215,
      "ę": 216,
      "Ě": 217,
      "ě": 218,
      "Ĝ": 219,
      "ĝ": 220,
      "Ğ": 221,
      "ğ": 222,
      "Ġ": 223,
      "ġ": 224,
      "Ģ": 225,
      "ģ": 226,
      "Ĥ": 227,
      "ĥ": 228,
      "Ħ": 229,
      "ħ": 230,
      "Ĩ": 231,
      "ĩ": 232,
      "Ī": 233,
      "ī": 234,
      "Ĭ": 235,
      "ĭ": 236,
      "Į": 237,
      "į": 238,
      "İ": 239,
      "ı": 240,
      "Ĳ": 241,
      "ĳ": 242,
      "Ĵ": 243,
      "ĵ": 244,
      "Ķ": 245,
      "ķ": 246,
      "ĸ": 247,
      "Ĺ": 248,
      "ĺ": 249,
      "Ļ": 250,
      "ļ": 251,
      "Ľ": 252,
      "ľ": 253,
      "Ŀ": 254,
      "ŀ": 255,
      "Ł": 256,
      "ł": 257,
      "Ń": 258,
      "ku": 259,
      "ng": 260,
      "th": 261,
      "la": 262,
      "Ġu": 263,
      "zi": 264,
      "le": 265,
      "wa": 266,
      "ba": 267,
      "Ġe": 268,
      "si": 269,
      "en": 270,
      "ma": 271,
      "Ġi": 272,
      "ka": 273,
      "ha": 274,
      "Ġn": 275,
      "lo": 276,
      "Ġa": 277,
      "we": 278,
      "Ġng": 279,
      "se": 280,
      "thi": 281,
      "li": 282,
      "kh": 283,
      "Ġku": 284,
      "nd": 285,
      "oku": 286,
      "lu": 287,
      "ni": 288,
      "Ġuku": 289,
      "nga": 290,
      "Ġk": 291,
      "be": 292,
      "sa": 293,
      "na": 294,
      "ye": 295,
      "ph": 296,
      "ya": 297,
      "za": 298,
      "sh": 299,
      "ke": 300,
      "yi": 301,
      "mi": 302,
      "nt": 303,
      "Ġo": 304,
      "ne": 305,
      "ze": 306,
      "the": 307,
      "eni": 308,
      "zo": 309,
      "bu": 310,
      "pha": 311,
      "bo": 312,
      "yo": 313,
      "me": 314,
      "hla": 315,
      "Ġaba": 316,
      "kho": 317,
      "Ġka": 318,
      "lwa": 319,
      "Ġba": 320,
      "bi": 321,
      "khu": 322,
      "fu": 323,
      "so": 324,
      "kha": 325,
      "Ġukuthi": 326,
      "Ġno": 327,
      "nye": 328,
      "tho": 329,
      "mu": 330,
      "Ġezi": 331,
      "ki": 332,
      "ben": 333,
      "ko": 334,
      "Ġizi": 335,
      "Ġnga": 336,
      "nda": 337,
      "Ġna": 338,
      "seben": 339,
      "Ġwa": 340,
      "thu": 341,
      "Ġngo": 342,
      "ĠU": 343,
      "Ġsi": 344,
      "fa": 345,
      "ngo": 346,
      "Ġne": 347,
      "Ġama": 348,
      "tha": 349,
      "sha": 350,
      "ngi": 351,
      "Ġum": 352,
      "wo": 353,
      "Ġlo": 354,
      "Ġesi": 355,
      "ntu": 356,
      "phe": 357,
      "Ġnge": 358,
      "da": 359,
      "Ġisi": 360,
      "Ġkwa": 361,
      "no": 362,
      "bh": 363,
      "ngu": 364,
      "nya": 365,
      "je": 366,
      "Ġoku": 367,
      "lwe": 368,
      "sebenzi": 369,
      "hle": 370,
      "Ġbe": 371,
      "wen": 372,
      "qo": 373,
      "di": 374,
      "mo": 375,
      "Ġkwe": 376,
      "nge": 377,
      "kwa": 378,
      "khe": 379,
      "lela": 380,
      "mbi": 381,
      "Ġko": 382,
      "weni": 383,
      "Ġzi": 384,
      "pho": 385,
      "ga": 386,
      "ca": 387,
      "sho": 388,
      "Ġnoma": 389,
      "hu": 390,
      "Ġyi": 391,
      "Ġya": 392,
      "wu": 393,
      "Ġngoku": 394,
      "shi": 395,
      "khulu": 396,
      "ela": 397,
      "qa": 398,
      "Ġwe": 399,
      "Ġla": 400,
      "Ġse": 401,
      "mp": 402,
      "Ġle": 403,
      "Ġnoku": 404,
      "phi": 405,
      "ci": 406,
      "zwe": 407,
      "hlo": 408,
      "su": 409,
      "qu": 410,
      "ĠN": 411,
      "Ġy": 412,
      "vu": 413,
      "mba": 414,
      "nto": 415,
      "ho": 416,
      "ĠK": 417,
      "nke": 418,
      "swa": 419,
      "kwe": 420,
      "mele": 421,
      "ĠA": 422,
      "Ġye": 423,
      "ĠM": 424,
      "ini": 425,
      "Ġnje": 426,
      "she": 427,
      "va": 428,
      "phaka": 429,
      "de": 430,
      "Ġkanye": 431,
      "thetho": 432,
      "dwa": 433,
      "ndi": 434,
      "Ġli": 435,
      "khathi": 436,
      "ti": 437,
      "khona": 438,
      "ĠS": 439,
      "ĠuM": 440,
      "bhe": 441,
      "bha": 442,
      "Ġimi": 443,
      "fi": 444,
      "ce": 445,
      "Ġuma": 446,
      "vi": 447,
      "phu": 448,
      "ĠI": 449,
      "nele": 450,
      "Ġyoku": 451,
      "phakathi": 452,
      "mali": 453,
      "zoku": 454,
      "futhi": 455,
      "ri": 456,
      "zu": 457,
      "nde": 458,
      "ta": 459,
      "du": 460,
      "Ġfuthi": 461,
      "hlu": 462,
      "kile": 463,
      "ve": 464,
      "Ġem": 465,
      "khi": 466,
      "Ġza": 467,
      "nu": 468,
      "ngen": 469,
      "Ġngen": 470,
      "kwen": 471,
      "tsh": 472,
      "Ġnezi": 473,
      "hlanga": 474,
      "Ġeli": 475,
      "fanele": 476,
      "Ġyo": 477,
      "Ġsa": 478,
      "ja": 479,
      "Ġuthe": 480,
      "ndo": 481,
      "te": 482,
      "gu": 483,
      "Ġloku": 484,
      "Ġin": 485,
      "Ġs": 486,
      "thola": 487,
      "qe": 488,
      "nsi": 489,
      "mbu": 490,
      "go": 491,
      "ndle": 492,
      "zwa": 493,
      "to": 494,
      "yisa": 495,
      "Ġngoba": 496,
      "Ġngi": 497,
      "Ġkusho": 498,
      "he": 499,
      "Ġkodwa": 500,
      "wi": 501,
      "kela": 502,
      "mbe": 503,
      "Ġabantu": 504,
      "muntu": 505,
      "mela": 506,
      "Ġkoku": 507,
      "ndla": 508,
      "meni": 509,
      "Ġeku": 510,
      "Ġzo": 511,
      "Ġzoku": 512,
      "lele": 513,
      "Ġma": 514,
      "do": 515,
      "Ġizin": 516,
      "sikhathi": 517,
      "dla": 518,
      "gi": 519,
      "Ġze": 520,
      "Ġngapha": 521,
      "ra": 522,
      "funda": 523,
      "lule": 524,
      "gci": 525,
      "ge": 526,
      "Ġsoku": 527,
      "ĠuN": 528,
      "cwa": 529,
      "bantu": 530,
      "dlela": 531,
      "hlelo": 532,
      "nuz": 533,
      "ĠKu": 534,
      "zin": 535,
      "xa": 536,
      "kazi": 537,
      "ĠL": 538,
      "sebenza": 539,
      "phoyisa": 540,
      "Ġnjengo": 541,
      "qini": 542,
      "lisa": 543,
      "kwazi": 544,
      "nyaka": 545,
      "swe": 546,
      "Ġkule": 547,
      "Ġlu": 548,
      "co": 549,
      "Ġukuze": 550,
      "ĠUthe": 551,
      "Ġwo": 552,
      "nzi": 553,
      "Ma": 554,
      "nje": 555,
      "qhu": 556,
      "bona": 557,
      "Ġukuba": 558,
      "Uku": 559,
      "ene": 560,
      "Ġolu": 561,
      "mbisa": 562,
      "ningi": 563,
      "mpa": 564,
      "00": 565,
      "cala": 566,
      "lumeni": 567,
      "pa": 568,
      "Ġen": 569,
      "ĠB": 570,
      "Ġm": 571,
      "leni": 572,
      "ngane": 573,
      "men": 574,
      "Ġso": 575,
      "Zu": 576,
      "fo": 577,
      "Ġlapho": 578,
      "ntolo": 579,
      "enzi": 580,
      "kantolo": 581,
      "nti": 582,
      "ĠSi": 583,
      "Ġnama": 584,
      "Si": 585,
      "zulu": 586,
      "Ġkwen": 587,
      "Ġkhona": 588,
      "re": 589,
      "Ġemi": 590,
      "mpi": 591,
      "fundi": 592,
      "qala": 593,
      "Ġngu": 594,
      "Ġubu": 595,
      "fri": 596,
      "ny": 597,
      "ĠE": 598,
      "zeka": 599,
      "hulumeni": 600,
      "shwa": 601,
      "mthetho": 602,
      "Ġkakhulu": 603,
      "Ġkumele": 604,
      "Ġkwezi": 605,
      "bula": 606,
      "Ġabe": 607,
      "qi": 608,
      "Ġnjengoba": 609,
      "phen": 610,
      "ĠO": 611,
      "ndela": 612,
      "mbo": 613,
      "nyango": 614,
      "tsha": 615,
      "Ġkwi": 616,
      "kala": 617,
      "suku": 618,
      "ĠC": 619,
      "Ku": 620,
      "hi": 621,
      "ĠuMnuz": 622,
      "yela": 623,
      "funa": 624,
      "zini": 625,
      "on": 626,
      "Ġema": 627,
      "kwenza": 628,
      "ndawo": 629,
      "celo": 630,
      "ngqo": 631,
      "muva": 632,
      "ndlu": 633,
      "bhi": 634,
      "thwa": 635,
      "Ġese": 636,
      "zane": 637,
      "daba": 638,
      "nike": 639,
      "kulu": 640,
      "bili": 641,
      "woku": 642,
      "xo": 643,
      "beni": 644,
      "beka": 645,
      "Ġwu": 646,
      "nqu": 647,
      "qinise": 648,
      "Na": 649,
      "Ġimali": 650,
      "lungu": 651,
      "ĠMa": 652,
      "Ġngesikhathi": 653,
      "ndlela": 654,
      "hlangano": 655,
      "Ġ(": 656,
      "kisa": 657,
      "Ġaku": 658,
      "ro": 659,
      "Ġ,": 660,
      "leka": 661,
      "ngena": 662,
      "thiwa": 663,
      "cha": 664,
      "Ġwoku": 665,
      "Ġenga": 666,
      "ndeni": 667,
      "Ġkufanele": 668,
      "nja": 669,
      "sela": 670,
      "sebenzisa": 671,
      "Ġnen": 672,
      "hlala": 673,
      "ĠAfri": 674,
      "Ġlwe": 675,
      "solwa": 676,
      "zela": 677,
      "sen": 678,
      "Ġnom": 679,
      "sipa": 680,
      "sipala": 681,
      "wane": 682,
      "Ġkwama": 683,
      "Ġumuntu": 684,
      "ziwa": 685,
      "wini": 686,
      "Ġpha": 687,
      "nta": 688,
      "mpilo": 689,
      "Ġ1": 690,
      "hli": 691,
      "Zulu": 692,
      "ĠT": 693,
      "Ġyen": 694,
      "hlaba": 695,
      "lwazi": 696,
      "Ġanga": 697,
      "Ġ-": 698,
      "lungi": 699,
      "kene": 700,
      "dlu": 701,
      "tshenzi": 702,
      "ĠuNk": 703,
      "cu": 704,
      "ndaba": 705,
      "wesi": 706,
      "Ġkuzo": 707,
      "Ġkube": 708,
      "Ġube": 709,
      "mbili": 710,
      "tu": 711,
      "zen": 712,
      "kele": 713,
      "Ġnaba": 714,
      "ji": 715,
      "phela": 716,
      "ĠW": 717,
      "meli": 718,
      "ĠP": 719,
      "yisi": 720,
      "ĠKwa": 721,
      "setshenzi": 722,
      "Ġngama": 723,
      "Ni": 724,
      "ngizi": 725,
      "Ġkom": 726,
      "Ġngezi": 727,
      "lelwa": 728,
      "munye": 729,
      "Ġnemi": 730,
      "dawo": 731,
      "fana": 732,
      "seke": 733,
      "Ġkuka": 734,
      "shini": 735,
      "ngizimu": 736,
      "Ġamaphoyisa": 737,
      "gqo": 738,
      "Ġbese": 739,
      "lweni": 740,
      "Ġlwa": 741,
      "Ġbo": 742,
      "Ġkunga": 743,
      "hlaka": 744,
      "Ġom": 745,
      "Ġkahle": 746,
      "Ningizimu": 747,
      "ngqoshe": 748,
      "qha": 749,
      "gwa": 750,
      "Ġizo": 751,
      "shu": 752,
      "nisa": 753,
      "AN": 754,
      "ndaweni": 755,
      "huma": 756,
      "Ġkulo": 757,
      "thole": 758,
      "Ġnesi": 759,
      "Ġngendlela": 760,
      "hamba": 761,
      "Ġkanti": 762,
      "Ġuzo": 763,
      "mende": 764,
      "Ġwesi": 765,
      "gaba": 766,
      "tal": 767,
      "fazane": 768,
      "Ġlokhu": 769,
      "ngeni": 770,
      "siza": 771,
      "kinga": 772,
      "Ġlesi": 773,
      "landela": 774,
      "Ġ2": 775,
      "lile": 776,
      "vume": 777,
      "ĠAfrika": 778,
      "Ġumsebenzi": 779,
      "cane": 780,
      "gomo": 781,
      "kisi": 782,
      "Ġisikhathi": 783,
      "gama": 784,
      "lonke": 785,
      "ngelo": 786,
      "khaya": 787,
      "fundo": 788,
      "thuthu": 789,
      "mpahla": 790,
      "Ġngokuthi": 791,
      "hambisa": 792,
      "qhubeka": 793,
      "Ġngenxa": 794,
      "Uma": 795,
      "dlule": 796,
      "faka": 797,
      "Ġwen": 798,
      "Co": 799,
      "sele": 800,
      "ĠD": 801,
      "The": 802,
      "sz": 803,
      "holi": 804,
      "Izi": 805,
      "fundazwe": 806,
      "Ġezin": 807,
      "Ġmi": 808,
      "Ġkuba": 809,
      "noma": 810,
      "phezulu": 811,
      "thile": 812,
      "Ġayi": 813,
      "phinde": 814,
      "bhu": 815,
      "Ġngaphandle": 816,
      "moto": 817,
      "bheka": 818,
      "tshe": 819,
      "ĠR": 820,
      "Ama": 821,
      "Ġkwesi": 822,
      "vela": 823,
      "ĠG": 824,
      "waye": 825,
      "zweni": 826,
      "leli": 827,
      "Lo": 828,
      "ĠĠ": 829,
      "So": 830,
      "ĠUm": 831,
      "zinisi": 832,
      "yen": 833,
      "Natal": 834,
      "bala": 835,
      "enye": 836,
      "nte": 837,
      "Ġaka": 838,
      "seni": 839,
      "qembu": 840,
      "limi": 841,
      "khandlu": 842,
      "setshenziswa": 843,
      "hlobo": 844,
      "Ġseku": 845,
      "bhizinisi": 846,
      "dingo": 847,
      "lungelo": 848,
      "ziwe": 849,
      "Ġyakhe": 850,
      "thwe": 851,
      "Ġkwaba": 852,
      "vele": 853,
      "Mthetho": 854,
      "xhuma": 855,
      "kole": 856,
      "sekelo": 857,
      "Ġeza": 858,
      "Ġuya": 859,
      "ANC": 860,
      "Ġase": 861,
      "Isi": 862,
      "po": 863,
      "Ġsesi": 864,
      "thatha": 865,
      "ngani": 866,
      "Ġnase": 867,
      "lokhu": 868,
      "khuluma": 869,
      "nini": 870,
      "thweni": 871,
      "ama": 872,
      "shwe": 873,
      "Ġwase": 874,
      "Um": 875,
      "thele": 876,
      "Ġwakhe": 877,
      "ndleni": 878,
      "ndele": 879,
      "phepha": 880,
      "st": 881,
      "nqumo": 882,
      "hlukene": 883,
      "ĠUN": 884,
      "Ġkanja": 885,
      "ĠZ": 886,
      "khulumela": 887,
      "gcina": 888,
      "gqongqoshe": 889,
      "buye": 890,
      "khala": 891,
      "ngameli": 892,
      "fike": 893,
      "Ġyesi": 894,
      "Ġphakathi": 895,
      "Ġebe": 896,
      "thathu": 897,
      "Ġngokwe": 898,
      "Ġbazo": 899,
      "hwe": 900,
      "visi": 901,
      "liwe": 902,
      "vo": 903,
      "hloso": 904,
      "bho": 905,
      "ĠY": 906,
      "Ġobe": 907,
      "ĠUM": 908,
      "ĠNgi": 909,
      "ngx": 910,
      "khokhe": 911,
      "cela": 912,
      "Ġobu": 913,
      "Ġzonke": 914,
      "ĠH": 915,
      "ngene": 916,
      "Ġyini": 917,
      "kayo": 918,
      "lawu": 919,
      "Ġisicelo": 920,
      "lesi": 921,
      "ĠKwaZulu": 922,
      "xi": 923,
      "ncane": 924,
      "nj": 925,
      "19": 926,
      "Pha": 927,
      "kampa": 928,
      "pe": 929,
      "khungo": 930,
      "yelana": 931,
      "khiqi": 932,
      "dinge": 933,
      "20": 934,
      "notho": 935,
      "Ġlom": 936,
      "Ġ.": 937,
      "selwa": 938,
      "ĠLo": 939,
      "ĠBa": 940,
      "Ġngalo": 941,
      "Lwesi": 942,
      "Ġkwemi": 943,
      "hlin": 944,
      "phatha": 945,
      "cwadi": 946,
      "nywa": 947,
      "tshu": 948,
      "khan": 949,
      "thuba": 950,
      "Ġngayo": 951,
      "Ġkuyo": 952,
      "tholakala": 953,
      "ĠeM": 954,
      "tela": 955,
      "gqu": 956,
      "Le": 957,
      "Ġngaphansi": 958,
      "kwini": 959,
      "ntsha": 960,
      "Ġngesi": 961,
      "Ġyezi": 962,
      "Ġkuleli": 963,
      "Ġizinto": 964,
      "zwelonke": 965,
      "bhedlela": 966,
      "Ġyom": 967,
      "ngama": 968,
      "game": 969,
      "Ġwathi": 970,
      "Ġyama": 971,
      "xhumana": 972,
      "ĠuNkk": 973,
      "Ġnokuthi": 974,
      "Ġbase": 975,
      "ngxenye": 976,
      "fika": 977,
      "ula": 978,
      "kelwa": 979,
      "xe": 980,
      "fe": 981,
      "ngaka": 982,
      "nama": 983,
      "kampani": 984,
      "phathi": 985,
      "hho": 986,
      "Ba": 987,
      "Ġeya": 988,
      "yu": 989,
      "Ġkuphela": 990,
      "sem": 991,
      "bhala": 992,
      "Ġisa": 993,
      "Ġkukhona": 994,
      "lula": 995,
      "qubo": 996,
      "ĉĉ": 997,
      "Ġicala": 998,
      "hlalo": 999,
      "jalo": 1000,
      "masipala": 1001,
      "Ġendaweni": 1002,
      "gameko": 1003,
      "lande": 1004,
      "No": 1005,
      "zama": 1006,
      "kosi": 1007,
      "Ġngemuva": 1008,
      "nci": 1009,
      "Ġngaphambi": 1010,
      "bulala": 1011,
      "ĠLe": 1012,
      "lekile": 1013,
      "Ġwuku": 1014,
      "lima": 1015,
      "dinga": 1016,
      "Ġphansi": 1017,
      "thengi": 1018,
      "tion": 1019,
      "tshwa": 1020,
      "Ġngeke": 1021,
      "neni": 1022,
      "dala": 1023,
      "chi": 1024,
      "Ġnezin": 1025,
      "SA": 1026,
      "shaya": 1027,
      "Ġlika": 1028,
      "sisekelo": 1029,
      "qondi": 1030,
      "minyaka": 1031,
      "khwa": 1032,
      "Ġasi": 1033,
      "banga": 1034,
      "Ġnaye": 1035,
      "ĠuMa": 1036,
      "Ġkuya": 1037,
      "Ġsezi": 1038,
      "Ġunga": 1039,
      "Ġben": 1040,
      "chaza": 1041,
      "ĠF": 1042,
      "lli": 1043,
      "ngwane": 1044,
      "Ġesa": 1045,
      "Ġyase": 1046,
      "thanda": 1047,
      "Ġwonke": 1048,
      "hambisana": 1049,
      "Ġlezi": 1050,
      "shaye": 1051,
      "hambe": 1052,
      "Ġnjenge": 1053,
      "Ġkuthiwa": 1054,
      "thisha": 1055,
      "Ġazi": 1056,
      "lelo": 1057,
      "thethweni": 1058,
      "Ġbaya": 1059,
      "phansi": 1060,
      "bone": 1061,
      "Ġsen": 1062,
      "misa": 1063,
      "xu": 1064,
      "lulekile": 1065,
      "Ġemuva": 1066,
      "ngaba": 1067,
      "Ġebu": 1068,
      "Ġlokho": 1069,
      "pi": 1070,
      "qinisekisa": 1071,
      "hlanu": 1072,
      "Ġbu": 1073,
      "khombisa": 1074,
      "zelo": 1075,
      "ter": 1076,
      "thelo": 1077,
      "Nga": 1078,
      "Ġokumele": 1079,
      "keni": 1080,
      "fakazi": 1081,
      "phumela": 1082,
      "Ġezo": 1083,
      "hhovisi": 1084,
      "hluka": 1085,
      "kwenziwa": 1086,
      "ĠuNksz": 1087,
      "phendu": 1088,
      "Ġowa": 1089,
      "Ġ\"": 1090,
      "Ġwaye": 1091,
      "ĠAba": 1092,
      "Ġeze": 1093,
      "kelele": 1094,
      "Ġzom": 1095,
      "Ġusi": 1096,
      "Ġyonke": 1097,
      "Ġukwe": 1098,
      "gunya": 1099,
      "ĠngoLwesi": 1100,
      "Ġbeku": 1101,
      "Sa": 1102,
      "lise": 1103,
      "Ġsebe": 1104,
      "Ġyisi": 1105,
      "or": 1106,
      "Kwa": 1107,
      "siwe": 1108,
      "Ġnjalo": 1109,
      "Ġizolo": 1110,
      "sifazane": 1111,
      "mile": 1112,
      "Ġyena": 1113,
      "Ġim": 1114,
      "phezu": 1115,
      "ĠUku": 1116,
      "ngekho": 1117,
      "lwane": 1118,
      "phuma": 1119,
      "gwe": 1120,
      "ÂĢ": 1121,
      "Ã¢": 1122,
      "ÂĢÂ": 1123,
      "Phe": 1124,
      "000": 1125,
      "ĠOkhulumela": 1126,
      "ĠuR": 1127,
      "kelwe": 1128,
      "xha": 1129,
      "nyu": 1130,
      "Ġulwazi": 1131,
      "thula": 1132,
      "Ġenkantolo": 1133,
      "koleni": 1134,
      "maphoyisa": 1135,
      "hluku": 1136,
      "Zuma": 1137,
      "Ġweze": 1138,
      "Ġumthetho": 1139,
      "Ngi": 1140,
      "Ġuhlelo": 1141,
      "ngozi": 1142,
      "Thekwini": 1143,
      "ĠJ": 1144,
      "Ġkusu": 1145,
      "Ġinga": 1146,
      "lini": 1147,
      "Ġsika": 1148,
      "hlola": 1149,
      "qale": 1150,
      "Ġngom": 1151,
      "cono": 1152,
      "Ġindlela": 1153,
      "Se": 1154,
      "deni": 1155,
      "Ġndawo": 1156,
      "Ġumphakathi": 1157,
      "ĠSe": 1158,
      "ĠeN": 1159,
      "ndu": 1160,
      "nani": 1161,
      "ngweni": 1162,
      "nezi": 1163,
      "),": 1164,
      "qonda": 1165,
      "Me": 1166,
      "ngqu": 1167,
      "fomu": 1168,
      "sonto": 1169,
      "thathe": 1170,
      "Kho": 1171,
      "lindele": 1172,
      "ar": 1173,
      "balo": 1174,
      "zeke": 1175,
      "gatsha": 1176,
      "gciwane": 1177,
      "lelwe": 1178,
      "Ġengu": 1179,
      "qhube": 1180,
      "in": 1181,
      "Ġisimo": 1182,
      "Ġabasebenzi": 1183,
      "jo": 1184,
      "Ġezinga": 1185,
      "gungu": 1186,
      "kiswa": 1187,
      "ĠUma": 1188,
      "Ġwezi": 1189,
      "Ġmayelana": 1190,
      "cwe": 1191,
      "yise": 1192,
      "Ġzezi": 1193,
      "ĠNgo": 1194,
      "al": 1195,
      "Ġkwalo": 1196,
      "Lokhu": 1197,
      "Ġzika": 1198,
      "phawu": 1199,
      "mpela": 1200,
      "bani": 1201,
      "ndleko": 1202,
      "Ġinto": 1203,
      "gebe": 1204,
      "ntshi": 1205,
      "Ġindawo": 1206,
      "qhaza": 1207,
      "zayo": 1208,
      "Ġlakhe": 1209,
      "Ġawu": 1210,
      "nesi": 1211,
      "biko": 1212,
      "ngwa": 1213,
      "lamende": 1214,
      "Ġkanjani": 1215,
      "dabu": 1216,
      "gesi": 1217,
      "Ġngabe": 1218,
      "Ġukusebenza": 1219,
      "jwaye": 1220,
      "nyathelo": 1221,
      "Ġsizo": 1222,
      "sebenzini": 1223,
      "langa": 1224,
      "themba": 1225,
      "doda": 1226,
      "nyama": 1227,
      "Ġizingane": 1228,
      "thinte": 1229,
      "mini": 1230,
      "veze": 1231,
      "Ġuse": 1232,
      "Ġabanye": 1233,
      "niningwane": 1234,
      "Ġzen": 1235,
      "Ġbanga": 1236,
      "nyi": 1237,
      "Ãĥ": 1238,
      "belo": 1239,
      "La": 1240,
      "ĠNa": 1241,
      "fake": 1242,
      "Ġnobu": 1243,
      "Ġwaba": 1244,
      "llion": 1245,
      "mpu": 1246,
      "Ġabanga": 1247,
      "Ġzama": 1248,
      "muzi": 1249,
      "Ġsokuthi": 1250,
      "mvu": 1251,
      "liswa": 1252,
      "ĠNo": 1253,
      "Zi": 1254,
      "Ġonga": 1255,
      "nzima": 1256,
      "theni": 1257,
      "khono": 1258,
      "Ġnabo": 1259,
      "Ġkwakhe": 1260,
      "Ġkokuthi": 1261,
      "Ġimisebenzi": 1262,
      "finye": 1263,
      "nqa": 1264,
      "Ġzabo": 1265,
      "Ġwama": 1266,
      "ĠCo": 1267,
      "phethe": 1268,
      "Ġbonke": 1269,
      "Ġyizi": 1270,
      "gebengu": 1271,
      "hloko": 1272,
      "sungu": 1273,
      "Ġb": 1274,
      "Ġukwenza": 1275,
      "Ġkulesi": 1276,
      "mufi": 1277,
      "kiwe": 1278,
      "gcwa": 1279,
      "Ġabafundi": 1280,
      "bele": 1281,
      "Ġnalo": 1282,
      "Ġokwa": 1283,
      "Ġisinqumo": 1284,
      "pheshe": 1285,
      "lezwe": 1286,
      "Ġbebe": 1287,
      "shana": 1288,
      "Ġphambili": 1289,
      ").": 1290,
      "komi": 1291,
      "manje": 1292,
      "ĠNge": 1293,
      "zele": 1294,
      "boshwa": 1295,
      "shona": 1296,
      "bhekene": 1297,
      "ywa": 1298,
      "thela": 1299,
      "tati": 1300,
      "nsiza": 1301,
      "tekisi": 1302,
      "ngoku": 1303,
      "mise": 1304,
      "ĠNga": 1305,
      "nom": 1306,
      "Ġof": 1307,
      "vaka": 1308,
      "zekile": 1309,
      "hloni": 1310,
      "phosa": 1311,
      "Ġbezi": 1312,
      "Ġ;": 1313,
      "ndoda": 1314,
      "Ġbabe": 1315,
      "veza": 1316,
      "nikeza": 1317,
      "Phalamende": 1318,
      "nwa": 1319,
      "Ġyokuthi": 1320,
      "balulekile": 1321,
      "Ġukuzi": 1322,
      "ndaka": 1323,
      "zali": 1324,
      "Ġngale": 1325,
      "vikela": 1326,
      "Aba": 1327,
      "bulawa": 1328,
      "ĠNg": 1329,
      "ĠIn": 1330,
      "Ng": 1331,
      "ĠUNk": 1332,
      "Ġabo": 1333,
      "labo": 1334,
      "tshela": 1335,
      "amaphosa": 1336,
      "leke": 1337,
      "ĠuD": 1338,
      "Mnyango": 1339,
      "Ġmanje": 1340,
      "phandle": 1341,
      "Ġ000": 1342,
      "qeqe": 1343,
      "ona": 1344,
      "thini": 1345,
      "Ġ3": 1346,
      "vumelwa": 1347,
      "khipha": 1348,
      "Ngqongqoshe": 1349,
      "Ġlabo": 1350,
      "Ġudaba": 1351,
      "khula": 1352,
      "Ġethi": 1353,
      "Ġlapha": 1354,
      "Ġazo": 1355,
      "Wa": 1356,
      "Ġkonke": 1357,
      "vumela": 1358,
      "kale": 1359,
      "ĠIsi": 1360,
      "Ġdaba": 1361,
      "phathele": 1362,
      "phakathini": 1363,
      "Ġyabo": 1364,
      "nina": 1365,
      "Ko": 1366,
      "Mkhandlu": 1367,
      "ngeke": 1368,
      "chwe": 1369,
      "Ġeziningi": 1370,
      "unda": 1371,
      "Ġomunye": 1372,
      "zempilo": 1373,
      "hlanganisa": 1374,
      "ĠBe": 1375,
      "phila": 1376,
      "vid": 1377,
      "mhla": 1378,
      "khatha": 1379,
      "cele": 1380,
      "thuko": 1381,
      "doko": 1382,
      "lahle": 1383,
      "phenyo": 1384,
      "Ġuhulumeni": 1385,
      "Ġamanzi": 1386,
      "nkulu": 1387,
      "Ġngakho": 1388,
      "hlakalo": 1389,
      "Ġusu": 1390,
      "zinga": 1391,
      "phuthu": 1392,
      "phathelene": 1393,
      "neminyaka": 1394,
      "cwani": 1395,
      "201": 1396,
      "Ġkuma": 1397,
      "thombo": 1398,
      "Ġnya": 1399,
      "Ġamandla": 1400,
      "phume": 1401,
      "Ġamalungu": 1402,
      "Ġngoko": 1403,
      "njalo": 1404,
      "Ġaye": 1405,
      "khakha": 1406,
      "Ġwukuthi": 1407,
      "meme": 1408,
      "Ġingane": 1409,
      "nyanga": 1410,
      "buzo": 1411,
      "Ġsinga": 1412,
      "Ġwezoku": 1413,
      "Ġleli": 1414,
      "ĠngoM": 1415,
      "yazi": 1416,
      "phele": 1417,
      "Afri": 1418,
      "ĠKuthiwa": 1419,
      "Imi": 1420,
      "gcine": 1421,
      "Ġngaba": 1422,
      "sile": 1423,
      "Bu": 1424,
      "hlale": 1425,
      "Ġkum": 1426,
      "In": 1427,
      "dluli": 1428,
      "thathwa": 1429,
      "Ġesibhedlela": 1430,
      "hlela": 1431,
      "Ġbesi": 1432,
      "Ġeyi": 1433,
      "Ġlolu": 1434,
      "buza": 1435,
      "Ġlaba": 1436,
      "qiniso": 1437,
      "ty": 1438,
      "shiya": 1439,
      "phaza": 1440,
      "ngum": 1441,
      "thuthukisa": 1442,
      "Ġekhaya": 1443,
      "shiwe": 1444,
      "hlinze": 1445,
      "gwaqo": 1446,
      "ll": 1447,
      "Ġkuyi": 1448,
      "Ġkuze": 1449,
      "cwele": 1450,
      "Ġsom": 1451,
      "dingeka": 1452,
      "Ġyaba": 1453,
      "sasa": 1454,
      "thinta": 1455,
      "boni": 1456,
      "ndlini": 1457,
      "ry": 1458,
      "ĠeThekwini": 1459,
      "khundleni": 1460,
      "ĠWe": 1461,
      "Ġukwa": 1462,
      "Ġkwaku": 1463,
      "..": 1464,
      "mfundo": 1465,
      "Ġiqhaza": 1466,
      "lala": 1467,
      "ngana": 1468,
      "nen": 1469,
      "manga": 1470,
      "cingo": 1471,
      "Ġizinhlelo": 1472,
      "Ġlowo": 1473,
      "duze": 1474,
      "vumelwano": 1475,
      "Ġkwabantu": 1476,
      "Ġngonyaka": 1477,
      "fisa": 1478,
      "Ġukuthola": 1479,
      "ĠMo": 1480,
      "Ġsakhe": 1481,
      "ntwa": 1482,
      "gcwele": 1483,
      "khundla": 1484,
      "lwen": 1485,
      "onke": 1486,
      "Ġose": 1487,
      "Ġokuyi": 1488,
      "liswe": 1489,
      "bonakala": 1490,
      "phenya": 1491,
      "Phezulu": 1492,
      "qwa": 1493,
      "Ġkokuba": 1494,
      "ĠWa": 1495,
      "fanayo": 1496,
      "lawula": 1497,
      "mbulu": 1498,
      "er": 1499,
      "Ġmuntu": 1500,
      "yini": 1501,
      "Covid": 1502,
      "Ġukudla": 1503,
      "nikazi": 1504,
      "ngenzeka": 1505,
      "lunga": 1506,
      "Ġezinye": 1507,
      "guqu": 1508,
      "Ġebi": 1509,
      "Ca": 1510,
      "Ka": 1511,
      "sebenzise": 1512,
      "bheke": 1513,
      "ziso": 1514,
      "Nk": 1515,
      "bhamu": 1516,
      "lingani": 1517,
      "phake": 1518,
      "shesha": 1519,
      "zange": 1520,
      "velo": 1521,
      "miso": 1522,
      "Ġiza": 1523,
      "Ġuthi": 1524,
      "Ġangi": 1525,
      "hlangani": 1526,
      "buyi": 1527,
      "Ġemsebenzini": 1528,
      "Ġeba": 1529,
      "cabanga": 1530,
      "mgomo": 1531,
      "Izin": 1532,
      "nyelwe": 1533,
      "Ġamabili": 1534,
      "Ġkubo": 1535,
      "bela": 1536,
      "Ġwom": 1537,
      "Ġsikhathi": 1538,
      "chwepheshe": 1539,
      "caci": 1540,
      "khanka": 1541,
      "phelele": 1542,
      "dolo": 1543,
      "kt": 1544,
      "bandela": 1545,
      "Ġiya": 1546,
      "zelwa": 1547,
      "hha": 1548,
      "Khomi": 1549,
      "yeni": 1550,
      "Ġika": 1551,
      "bezi": 1552,
      "kwele": 1553,
      "dumbu": 1554,
      "Ġemva": 1555,
      "Ġzase": 1556,
      "Ġezindaweni": 1557,
      "ĠAma": 1558,
      "ou": 1559,
      "Ġkusukela": 1560,
      "dlalo": 1561,
      "Ġsiya": 1562,
      "Ġzinga": 1563,
      "suka": 1564,
      "sana": 1565,
      "zathu": 1566,
      "ĠIzi": 1567,
      "nxu": 1568,
      "cimbi": 1569,
      "Ġukunga": 1570,
      "khasi": 1571,
      "zwi": 1572,
      "jwayelekile": 1573,
      "Ġomu": 1574,
      "Ġngisho": 1575,
      "qiniseki": 1576,
      "UM": 1577,
      "ru": 1578,
      "Ġezingu": 1579,
      "zile": 1580,
      "bhalo": 1581,
      "Ġemhla": 1582,
      "mukela": 1583,
      "dokotela": 1584,
      "Ġizindawo": 1585,
      "Zwe": 1586,
      "nwe": 1587,
      "Ġefanele": 1588,
      "ju": 1589,
      "Ġni": 1590,
      "Ġkwezin": 1591,
      "khansela": 1592,
      "ĠwezeM": 1593,
      "ngathi": 1594,
      "ĠUMnuz": 1595,
      "khuba": 1596,
      "muphi": 1597,
      "hluleka": 1598,
      "khishwa": 1599,
      "Mthethosisekelo": 1600,
      "tiki": 1601,
      "mboni": 1602,
      "Ngo": 1603,
      "dlwe": 1604,
      "kuleli": 1605,
      "ĠeNingizimu": 1606,
      "thimba": 1607,
      "Lu": 1608,
      "ngela": 1609,
      "khutha": 1610,
      "tolo": 1611,
      "Ġkanjalo": 1612,
      "lovu": 1613,
      "Ġbazi": 1614,
      "phile": 1615,
      "wabo": 1616,
      "linye": 1617,
      "qoka": 1618,
      "nyo": 1619,
      "Ġumhlaba": 1620,
      "lungisa": 1621,
      "kathi": 1622,
      "Ġngokwa": 1623,
      "Ġkuwo": 1624,
      "Ġnaku": 1625,
      "lungiswa": 1626,
      "Ja": 1627,
      "Ġokunga": 1628,
      "jabu": 1629,
      "Ġekuseni": 1630,
      "bane": 1631,
      "Ġeyo": 1632,
      "sombulu": 1633,
      "Ġabaningi": 1634,
      "zeni": 1635,
      ",\"": 1636,
      "gwaq": 1637,
      "Ġnale": 1638,
      "10": 1639,
      "Ġowaye": 1640,
      "Ġlama": 1641,
      "gqugqu": 1642,
      "landelwe": 1643,
      "Sha": 1644,
      "bambe": 1645,
      "nake": 1646,
      "Ġngum": 1647,
      "ele": 1648,
      "Kha": 1649,
      "Ġnezinye": 1650,
      "hola": 1651,
      "tatimende": 1652,
      "bhekana": 1653,
      "mbolo": 1654,
      "Ġmillion": 1655,
      "tshudeni": 1656,
      "Ġengi": 1657,
      "es": 1658,
      "uku": 1659,
      "Ġikakhulu": 1660,
      "hlan": 1661,
      ".\"": 1662,
      "gqi": 1663,
      "Ġamacala": 1664,
      "gatshana": 1665,
      "ent": 1666,
      "Ġngemi": 1667,
      "sola": 1668,
      "landelayo": 1669,
      "khalo": 1670,
      "ĉĉĉĉ": 1671,
      "ĠLa": 1672,
      "kwenzeka": 1673,
      "zom": 1674,
      "Ġusizo": 1675,
      "semthethweni": 1676,
      "ndakanya": 1677,
      "suke": 1678,
      "pula": 1679,
      "shisa": 1680,
      "Ġsase": 1681,
      "thenga": 1682,
      "dlwengu": 1683,
      "ch": 1684,
      "zuzo": 1685,
      "Ġesikoleni": 1686,
      "ngcono": 1687,
      "shayeli": 1688,
      "then": 1689,
      "yena": 1690,
      "Ġabebe": 1691,
      "Li": 1692,
      "Ġemhlabeni": 1693,
      "lindeleke": 1694,
      "cwaningo": 1695,
      "zimali": 1696,
      "thelela": 1697,
      "hlolwa": 1698,
      "Hu": 1699,
      "shiwo": 1700,
      "ĠMthetho": 1701,
      "Ġindoda": 1702,
      "ĠAfrica": 1703,
      "bonelo": 1704,
      "bamba": 1705,
      "nywe": 1706,
      "gabeni": 1707,
      "ĠLokhu": 1708,
      "ngcwa": 1709,
      "Ġemphakathini": 1710,
      "Ġiminyaka": 1711,
      "noku": 1712,
      "Ġusa": 1713,
      "kulumo": 1714,
      "Thu": 1715,
      "dabuko": 1716,
      "Ġozo": 1717,
      "tshele": 1718,
      "wala": 1719,
      "Ġibi": 1720,
      "ena": 1721,
      "Ġkahulumeni": 1722,
      "nce": 1723,
      "Ġoyi": 1724,
      "Ga": 1725,
      "Masipala": 1726,
      "Gu": 1727,
      "Ġngezin": 1728,
      "Zwelonke": 1729,
      "Ġumndeni": 1730,
      "sweni": 1731,
      "Ġzizo": 1732,
      "nweni": 1733,
      "zisa": 1734,
      "phathwa": 1735,
      "gula": 1736,
      "Ġokuba": 1737,
      "fundazweni": 1738,
      "dutshu": 1739,
      "selelo": 1740,
      "il": 1741,
      "ĠV": 1742,
      "khokha": 1743,
      "fakwa": 1744,
      "shintsha": 1745,
      "Ġimithetho": 1746,
      "Ġngenhloso": 1747,
      "Ġkomsebenzi": 1748,
      "zana": 1749,
      "Ġumsolwa": 1750,
      "Ġ19": 1751,
      "dwe": 1752,
      "bhali": 1753,
      "mhlanje": 1754,
      "Ġkazwelonke": 1755,
      "mvume": 1756,
      "khetho": 1757,
      "Ġimpahla": 1758,
      "poli": 1759,
      "mengameli": 1760,
      "wesifazane": 1761,
      "Mo": 1762,
      "sizi": 1763,
      "ĠKa": 1764,
      "Ġlokuthi": 1765,
      "Ġuba": 1766,
      "soma": 1767,
      "Ġekutheni": 1768,
      "Ġenkulu": 1769,
      "son": 1770,
      "onal": 1771,
      "lapho": 1772,
      "Ġkwabo": 1773,
      "Ġ4": 1774,
      "Ġkabu": 1775,
      "sti": 1776,
      "Ġngaso": 1777,
      "Ġngaphakathi": 1778,
      "Afrika": 1779,
      "khumbu": 1780,
      "qashi": 1781,
      "Ġezimbili": 1782,
      "Ġkubantu": 1783,
      "yiphi": 1784,
      "hlangana": 1785,
      "Ġimininingwane": 1786,
      "rd": 1787,
      "tshwala": 1788,
      "Ġela": 1789,
      "Ġnazo": 1790,
      "finyelela": 1791,
      "nyelwa": 1792,
      "Ġendlini": 1793,
      "buya": 1794,
      "muka": 1795,
      "Ġyakho": 1796,
      "Ġboku": 1797,
      "30": 1798,
      "Ġigama": 1799,
      "buke": 1800,
      "lomo": 1801,
      "thupha": 1802,
      "vivi": 1803,
      "lwini": 1804,
      "dle": 1805,
      "tshalo": 1806,
      "Ġzin": 1807,
      "Hulumeni": 1808,
      "xazulu": 1809,
      "gxi": 1810,
      "ur": 1811,
      "Ġkuna": 1812,
      "Ġleyo": 1813,
      "solezwe": 1814,
      "Ġkwenzeka": 1815,
      "njwa": 1816,
      "Ġizindlela": 1817,
      "ngoba": 1818,
      "Ġizwe": 1819,
      "Ġngokuba": 1820,
      "sebenze": 1821,
      "qondana": 1822,
      "bene": 1823,
      "Ġumbiko": 1824,
      "bophe": 1825,
      "Ġlutho": 1826,
      "Ġthe": 1827,
      "Ġuyi": 1828,
      "yanga": 1829,
      "khiqizo": 1830,
      "zamo": 1831,
      "Ġngobu": 1832,
      "Ġizinsuku": 1833,
      "vula": 1834,
      "funi": 1835,
      "Ġamazwe": 1836,
      "tifike": 1837,
      "seka": 1838,
      "hlungu": 1839,
      "vesi": 1840,
      "Ġyalo": 1841,
      "sebenzisana": 1842,
      "politiki": 1843,
      "Ġesinga": 1844,
      "Nge": 1845,
      "oli": 1846,
      "Ġimoto": 1847,
      "nile": 1848,
      "zolo": 1849,
      "Ġokufanele": 1850,
      "ment": 1851,
      "mula": 1852,
      "Funda": 1853,
      "kohlakalo": 1854,
      "Ġ*": 1855,
      "Ġuyo": 1856,
      "Ġzaba": 1857,
      "ngqongqoshe": 1858,
      "melelo": 1859,
      "Ġkusa": 1860,
      "ĠSa": 1861,
      "Ġsama": 1862,
      "hlawu": 1863,
      "Ġnayo": 1864,
      "cazelo": 1865,
      "Ġimpilo": 1866,
      "ĠCa": 1867,
      "Ġizimpahla": 1868,
      "Ġand": 1869,
      "Ġokuthiwa": 1870,
      "shone": 1871,
      "tuthuko": 1872,
      "bile": 1873,
      "khize": 1874,
      "dlala": 1875,
      "thintekayo": 1876,
      "sombuluko": 1877,
      "ĠĠĠĠ": 1878,
      "bono": 1879,
      "bhange": 1880,
      "bonga": 1881,
      "khanda": 1882,
      "kon": 1883,
      "nikezwa": 1884,
      "Ġabasolwa": 1885,
      "khomi": 1886,
      "mbisana": 1887,
      "tshala": 1888,
      "DA": 1889,
      "Ġbakhe": 1890,
      "khankaso": 1891,
      "shint": 1892,
      "shane": 1893,
      "Ġabazo": 1894,
      "Ġesikhundleni": 1895,
      "mbiko": 1896,
      "nika": 1897,
      "ÃĤ": 1898,
      "Ġkwale": 1899,
      "Ġincwadi": 1900,
      "Ġbaba": 1901,
      "Ġzakhe": 1902,
      "biza": 1903,
      "Ġkabi": 1904,
      "zelwe": 1905,
      "thombe": 1906,
      "Ġizidingo": 1907,
      "Ġali": 1908,
      "gwaqweni": 1909,
      "sayi": 1910,
      "tholakale": 1911,
      "Ġziya": 1912,
      "Ġkune": 1913,
      "Ġebusuku": 1914,
      "mpumelelo": 1915,
      "misebenzi": 1916,
      "Ġnabantu": 1917,
      "Ġamathuba": 1918,
      "rs": 1919,
      "Ġibe": 1920,
      "yona": 1921,
      "Ġngokushesha": 1922,
      "nji": 1923,
      "caba": 1924,
      "khiwo": 1925,
      "Zo": 1926,
      "solo": 1927,
      "Theku": 1928,
      "200": 1929,
      "Ġyimuphi": 1930,
      "siko": 1931,
      "Ġangu": 1932,
      "an": 1933,
      "niswa": 1934,
      "ngazi": 1935,
      "ndolo": 1936,
      "phendula": 1937,
      "mandla": 1938,
      "sebenzela": 1939,
      "qond": 1940,
      "khokhelwa": 1941,
      "ngase": 1942,
      "Ġubufakazi": 1943,
      "Ġkabusha": 1944,
      "ĠIsolezwe": 1945,
      "mpo": 1946,
      "komidi": 1947,
      "kithi": 1948,
      "qhuba": 1949,
      "50": 1950,
      "Ġeye": 1951,
      "nyana": 1952,
      "kweni": 1953,
      "sema": 1954,
      "vumele": 1955,
      "Ġawa": 1956,
      "jele": 1957,
      "hlanganweni": 1958,
      "khashana": 1959,
      "Mnuz": 1960,
      "fakwe": 1961,
      "nombolo": 1962,
      "holo": 1963,
      "hlinzeka": 1964,
      "kethe": 1965,
      "tional": 1966,
      "Umthetho": 1967,
      "bizwa": 1968,
      "ntathu": 1969,
      "Sonto": 1970,
      "rt": 1971,
      "shado": 1972,
      "ĠuMnyango": 1973,
      "Ġyami": 1974,
      "khiwa": 1975,
      "khosi": 1976,
      "Ġlase": 1977,
      "khathini": 1978,
      "ÂĤ": 1979,
      "Âĥ": 1980,
      "hlukume": 1981,
      "mva": 1982,
      "saba": 1983,
      "dayisa": 1984,
      "Ġzesi": 1985,
      "ĠKo": 1986,
      "sizo": 1987,
      "Ġikakhulukazi": 1988,
      "ndisa": 1989,
      "Ġkuthi": 1990,
      "Ġumnyango": 1991,
      "kwakha": 1992,
      "el": 1993,
      "qondo": 1994,
      "phikisa": 1995,
      "lisi": 1996,
      "qubomgomo": 1997,
      "hlango": 1998,
      "Ġababili": 1999,
      "ndile": 2000,
      "pu": 2001,
      "Ġukwazi": 2002,
      "mede": 2003,
      "Ġesigabeni": 2004,
      "valwa": 2005,
      "Ġayo": 2006,
      "Ġwabo": 2007,
      "Ġnabanye": 2008,
      "senzo": 2009,
      "Ġngazo": 2010,
      "bhalwe": 2011,
      "ntwana": 2012,
      "hlamvu": 2013,
      "cula": 2014,
      "Ġyethu": 2015,
      "thuthukiswa": 2016,
      "Ġbama": 2017,
      "hlelweni": 2018,
      "ĠThe": 2019,
      "ĠiN": 2020,
      "Ġwethu": 2021,
      "hlukunye": 2022,
      "Ġyin": 2023,
      "Ġokukhulu": 2024,
      "phiko": 2025,
      "hambela": 2026,
      "IF": 2027,
      "Ġuzi": 2028,
      "len": 2029,
      "dlula": 2030,
      "don": 2031,
      "ĠuNgqongqoshe": 2032,
      "duna": 2033,
      "fundisa": 2034,
      "qinisekisi": 2035,
      "khodi": 2036,
      "nyakeni": 2037,
      "Ġsengathi": 2038,
      "enziwe": 2039,
      "pta": 2040,
      "Ġnto": 2041,
      "mbela": 2042,
      "ndwa": 2043,
      "ck": 2044,
      "phathe": 2045,
      "phuthuma": 2046,
      "ntela": 2047,
      "thathwe": 2048,
      "ĠOku": 2049,
      "Ġezweni": 2050,
      "Ġkuchaza": 2051,
      "bhekele": 2052,
      "Ġokwenziwa": 2053,
      "Ġokwe": 2054,
      "ĠYi": 2055,
      "Ġsigameko": 2056,
      "Ġkuye": 2057,
      "Â¡": 2058,
      "Ġsonke": 2059,
      "ÂĢÂ¦": 2060,
      "khawu": 2061,
      "Ġwum": 2062,
      "zinye": 2063,
      "Ġithuba": 2064,
      "vuma": 2065,
      "Ġethu": 2066,
      "lilo": 2067,
      "shayela": 2068,
      "Sihlalo": 2069,
      "Ġkwenziwe": 2070,
      "nel": 2071,
      "zima": 2072,
      "Ġluka": 2073,
      "mukele": 2074,
      "rona": 2075,
      "Mi": 2076,
      "ver": 2077,
      "Ġise": 2078,
      "Noma": 2079,
      "Ġaya": 2080,
      "Ġeside": 2081,
      "Ġlinga": 2082,
      "zimba": 2083,
      "zingeni": 2084,
      "Ġesifundazweni": 2085,
      "Ġababe": 2086,
      "cebo": 2087,
      "ĠUNksz": 2088,
      "besifazane": 2089,
      "yalelo": 2090,
      "Ġngempela": 2091,
      "shonile": 2092,
      "Ġlwezi": 2093,
      "kekho": 2094,
      "ngqungqu": 2095,
      "Ġlwen": 2096,
      "ngxo": 2097,
      "shumi": 2098,
      "kalo": 2099,
      "shiye": 2100,
      "Ġmali": 2101,
      "selwe": 2102,
      "Ġongu": 2103,
      "mfu": 2104,
      "mpe": 2105,
      "mvelo": 2106,
      "Ġwami": 2107,
      "ngakho": 2108,
      "Ġbabo": 2109,
      "KwaZulu": 2110,
      "Ġabam": 2111,
      "Ġ5": 2112,
      "kuphi": 2113,
      "lunye": 2114,
      "Ġnawo": 2115,
      "lamini": 2116,
      "Ġabazi": 2117,
      "Ġwakho": 2118,
      "um": 2119,
      "Ġizinga": 2120,
      "mbise": 2121,
      "Ġkwisi": 2122,
      "Ġuphenyo": 2123,
      "Ġezoku": 2124,
      "qeda": 2125,
      "ĠkaZwelonke": 2126,
      "yili": 2127,
      "ngele": 2128,
      "nco": 2129,
      "qondisi": 2130,
      "Ngoku": 2131,
      "Ġeziyisi": 2132,
      "Kodwa": 2133,
      "ĠuG": 2134,
      "linde": 2135,
      "Ġke": 2136,
      "Ġkancane": 2137,
      "fundisi": 2138,
      "ÂĢÂĵ": 2139,
      "khwe": 2140,
      "Ġbenga": 2141,
      "bheki": 2142,
      "khishwe": 2143,
      "Ġenye": 2144,
      "ĠGu": 2145,
      "hluko": 2146,
      "Ġizinyathelo": 2147,
      "lonel": 2148,
      "Ġinkantolo": 2149,
      "dlelwa": 2150,
      "Di": 2151,
      "bezindaba": 2152,
      "gada": 2153,
      "lungise": 2154,
      "khiqiza": 2155,
      "konzo": 2156,
      "khelwane": 2157,
      "bhuku": 2158,
      "Fa": 2159,
      "sta": 2160,
      "xwa": 2161,
      "teshini": 2162,
      "Ġkungenzeka": 2163,
      "qhubeke": 2164,
      "beke": 2165,
      "Ġomphakathi": 2166,
      "khali": 2167,
      "Ġyabantu": 2168,
      "holela": 2169,
      "kundleni": 2170,
      "Ġnanoma": 2171,
      "Ġimibuzo": 2172,
      "dlame": 2173,
      "Ġedlule": 2174,
      "Ġithe": 2175,
      "shici": 2176,
      "khiphe": 2177,
      "ĠUNkk": 2178,
      "nxe": 2179,
      "Ġeziyi": 2180,
      "Ġzikahulumeni": 2181,
      "Ġune": 2182,
      "khetha": 2183,
      "Ġ6": 2184,
      "ĠuDkt": 2185,
      "ĠLi": 2186,
      "ĠGwala": 2187,
      "Ġngalesi": 2188,
      "thenda": 2189,
      "wn": 2190,
      "Ġodlule": 2191,
      "buyela": 2192,
      "Ġ7": 2193,
      "konti": 2194,
      "Ġyize": 2195,
      "Ġ200": 2196,
      "ĠSiya": 2197,
      "Ġngalolu": 2198,
      "koku": 2199,
      "cinde": 2200,
      "pilo": 2201,
      "Ġizindaba": 2202,
      "Ġnendlela": 2203,
      "ngqi": 2204,
      "Ġiqembu": 2205,
      "Ġngosuku": 2206,
      "dili": 2207,
      "Ġhlelo": 2208,
      "tholwe": 2209,
      "zomnotho": 2210,
      "kahle": 2211,
      "kom": 2212,
      "layi": 2213,
      "Ġezintathu": 2214,
      "dede": 2215,
      "Ġngiya": 2216,
      "Ġukuqinisekisa": 2217,
      "nayo": 2218,
      "Khu": 2219,
      "qhi": 2220,
      "mbeka": 2221,
      "Ġmaqondana": 2222,
      "nqubo": 2223,
      "phumele": 2224,
      "Ġsaba": 2225,
      "ĠNgoku": 2226,
      "jikelele": 2227,
      "ĠNgesikhathi": 2228,
      "11": 2229,
      "pheli": 2230,
      "khokhela": 2231,
      "lezo": 2232,
      "Ġbayo": 2233,
      "hlongo": 2234,
      "Ġakukho": 2235,
      "ĠJa": 2236,
      "Ġele": 2237,
      "Ġnamhlanje": 2238,
      "Ġyobu": 2239,
      "ĠngoMsombuluko": 2240,
      "Ġufuna": 2241,
      "Ġusuku": 2242,
      "lingana": 2243,
      "dayi": 2244,
      "Ġnyaka": 2245,
      "gh": 2246,
      "ĠEsi": 2247,
      "Nje": 2248,
      "Ġbathi": 2249,
      "ĠAku": 2250,
      "lapha": 2251,
      "zoba": 2252,
      "ĠZi": 2253,
      "gqibelo": 2254,
      "ĠuZuma": 2255,
      "zise": 2256,
      "Ġifa": 2257,
      "kheni": 2258,
      "hlwa": 2259,
      "Ġngcono": 2260,
      "Ġnjengama": 2261,
      "Ġnjengoku": 2262,
      "chazwe": 2263,
      "ngoma": 2264,
      "Ġ20": 2265,
      "njwe": 2266,
      "ĠuS": 2267,
      "ĠImi": 2268,
      "Ġkuso": 2269,
      "Corona": 2270,
      "Ġucingo": 2271,
      "wari": 2272,
      "hlazi": 2273,
      "guli": 2274,
      "luleka": 2275,
      "Ġnokwe": 2276,
      "Ġabangu": 2277,
      "Ġsengi": 2278,
      "chu": 2279,
      "ĠuMthetho": 2280,
      "lawulwa": 2281,
      "somabhizinisi": 2282,
      "kali": 2283,
      "mbuso": 2284,
      "rade": 2285,
      "Ph": 2286,
      "ywe": 2287,
      "bisa": 2288,
      "dingi": 2289,
      "khulume": 2290,
      "Ġlezo": 2291,
      "mbeni": 2292,
      "buso": 2293,
      "dalu": 2294,
      "che": 2295,
      "mbiso": 2296,
      "phakamiso": 2297,
      "kalala": 2298,
      "qumo": 2299,
      "Ġkunoma": 2300,
      "Ġ8": 2301,
      "ct": 2302,
      "ss": 2303,
      "phoqe": 2304,
      "hlisa": 2305,
      "Ġzethu": 2306,
      "khokhi": 2307,
      "daka": 2308,
      "enziwa": 2309,
      "kholwa": 2310,
      "ĠRe": 2311,
      "vumelana": 2312,
      "lle": 2313,
      "Ġusho": 2314,
      "ĠUMa": 2315,
      "sabala": 2316,
      "khungweni": 2317,
      "Ġizimali": 2318,
      "Ġimigomo": 2319,
      "Ġinani": 2320,
      "khomba": 2321,
      "Ġwayo": 2322,
      "Pi": 2323,
      "Ġngase": 2324,
      "Ġizinkinga": 2325,
      "Ġindaba": 2326,
      "Ġam": 2327,
      "ndlovu": 2328,
      "Ġngabantu": 2329,
      "dingekayo": 2330,
      "hlangothi": 2331,
      "endu": 2332,
      "khethe": 2333,
      "rekhodi": 2334,
      "Ġkanje": 2335,
      "Ġwesifazane": 2336,
      "Ġizicelo": 2337,
      "Ġomusha": 2338,
      "15": 2339,
      "lando": 2340,
      "ĠuCo": 2341,
      "thulwa": 2342,
      "Ġiyo": 2343,
      "ĠAmaphoyisa": 2344,
      "khwama": 2345,
      "Ġyilo": 2346,
      "Ġimvume": 2347,
      "buka": 2348,
      "phephile": 2349,
      "kaze": 2350,
      "shela": 2351,
      "letha": 2352,
      "bonisa": 2353,
      "Ġewu": 2354,
      "Ġemthethweni": 2355,
      "Solezwe": 2356,
      "Yi": 2357,
      "Ġezikoleni": 2358,
      "limala": 2359,
      "ĠDu": 2360,
      "Ġkade": 2361,
      "Ġlonke": 2362,
      "for": 2363,
      "hlukunyezwa": 2364,
      "Ġezithile": 2365,
      "gazi": 2366,
      "Nkk": 2367,
      "Ġafanele": 2368,
      "Ġamalungelo": 2369,
      "Ġseli": 2370,
      "Mantshi": 2371,
      "bika": 2372,
      "Ġyemi": 2373,
      "phuthumayo": 2374,
      "Ġunina": 2375,
      "ntweni": 2376,
      "Ġokubalwa": 2377,
      "gce": 2378,
      "Ġkulandela": 2379,
      "hlangene": 2380,
      "fune": 2381,
      "bheni": 2382,
      "nikeze": 2383,
      "Ġindi": 2384,
      "ĠMbele": 2385,
      "ral": 2386,
      "qinisekisile": 2387,
      "Ġwam": 2388,
      "Ġesiphezulu": 2389,
      "bandla": 2390,
      "Ġkuvu": 2391,
      "ngile": 2392,
      "shiswa": 2393,
      "yuvesi": 2394,
      "khamuzi": 2395,
      "kuba": 2396,
      "Ġing": 2397,
      "yedwa": 2398,
      "misele": 2399,
      "phula": 2400,
      "kwenze": 2401,
      "Bo": 2402,
      "Ġilungu": 2403,
      "gidi": 2404,
      "kweletu": 2405,
      "Ġumufi": 2406,
      "Ġkwesikhathi": 2407,
      "hweba": 2408,
      "laza": 2409,
      "sazi": 2410,
      "bonele": 2411,
      "bhalisa": 2412,
      "xoxi": 2413,
      "Ġlwama": 2414,
      "gcize": 2415,
      "Ġizimoto": 2416,
      "Ġizinsiza": 2417,
      "Ġlethu": 2418,
      "Ġngawo": 2419,
      "bheyili": 2420,
      "Ġizikole": 2421,
      "Ġamagama": 2422,
      "bhiki": 2423,
      "komo": 2424,
      "dli": 2425,
      "ĠngeSonto": 2426,
      "fane": 2427,
      "Ġesikhathini": 2428,
      "tshwe": 2429,
      "qede": 2430,
      "Ġilungelo": 2431,
      "butho": 2432,
      "Ġzomphakathi": 2433,
      "nkosi": 2434,
      "qobo": 2435,
      "Ġyona": 2436,
      "Ġomkhulu": 2437,
      "shaywa": 2438,
      "Ġbi": 2439,
      "Ġmina": 2440,
      "Ġinhlangano": 2441,
      "ren": 2442,
      "lani": 2443,
      "banzi": 2444,
      "12": 2445,
      "ts": 2446,
      "Ġabayi": 2447,
      "Ġizindleko": 2448,
      "fowabo": 2449,
      "gqugquzela": 2450,
      "khomishini": 2451,
      "kusasa": 2452,
      "ĠePhalamende": 2453,
      "ĠkoM": 2454,
      "mweni": 2455,
      "Ġ/": 2456,
      "ĠuSi": 2457,
      "cansi": 2458,
      "mbazane": 2459,
      "hora": 2460,
      "Ġkwalokho": 2461,
      "Ġinkinga": 2462,
      "sindo": 2463,
      "Ġemgwaqweni": 2464,
      "ster": 2465,
      "nxusa": 2466,
      "ĠeG": 2467,
      "tuli": 2468,
      "qinisekise": 2469,
      "ĠCape": 2470,
      "Ġlen": 2471,
      "Ġsakho": 2472,
      "nikezwe": 2473,
      "buyeke": 2474,
      "Fundazwe": 2475,
      "saka": 2476,
      "mulo": 2477,
      "Ġkomthetho": 2478,
      "Ġleso": 2479,
      "ĠBo": 2480,
      "Ġemakhaya": 2481,
      "Ġngqo": 2482,
      "Ġkusi": 2483,
      "Ġukusebenzisa": 2484,
      "Ġezahlukene": 2485,
      "khuthaza": 2486,
      "gxe": 2487,
      "Ġzokuthi": 2488,
      "ĠGumede": 2489,
      "ns": 2490,
      "Ġwalo": 2491,
      "hleli": 2492,
      "Ġmsebenzi": 2493,
      "Ġbom": 2494,
      "qondene": 2495,
      "bhaliwe": 2496,
      "Ġphambi": 2497,
      "kontileka": 2498,
      "Ġamanye": 2499,
      "shayamthetho": 2500,
      "sizinda": 2501,
      "xaba": 2502,
      "ĠngoLwesihlanu": 2503,
      "land": 2504,
      "Ġugesi": 2505,
      "dade": 2506,
      "ngxoxo": 2507,
      "ID": 2508,
      "qiniseko": 2509,
      "Ġzabantu": 2510,
      "ngenza": 2511,
      "qhinga": 2512,
      "ĠuCa": 2513,
      "qulu": 2514,
      "Ġlizo": 2515,
      "Ġzemi": 2516,
      "dlwengula": 2517,
      "Ġuphawu": 2518,
      "Ġezen": 2519,
      "gugu": 2520,
      "Ġabase": 2521,
      "ssi": 2522,
      "phutha": 2523,
      "dubula": 2524,
      "hlanganye": 2525,
      "Ġgciwane": 2526,
      "landelwa": 2527,
      "komiti": 2528,
      "Ġey": 2529,
      "ĠUni": 2530,
      "Ġabesifazane": 2531,
      "ĠUbe": 2532,
      "Ġumnotho": 2533,
      "galo": 2534,
      "ZN": 2535,
      "Ġabazali": 2536,
      "didi": 2537,
      "ĠeNkantolo": 2538,
      "phumelela": 2539,
      "Ġbayi": 2540,
      "phoyi": 2541,
      "Ġzokuxhumana": 2542,
      "loku": 2543,
      "Ġngamunye": 2544,
      "Ġnange": 2545,
      "Ġkwezinye": 2546,
      "ngisa": 2547,
      "luleko": 2548,
      "cobo": 2549,
      "Vi": 2550,
      "tri": 2551,
      "zobu": 2552,
      "Ġamaningi": 2553,
      "phakeme": 2554,
      "EF": 2555,
      "Oku": 2556,
      "Ġbasa": 2557,
      "mpendu": 2558,
      "dunankulu": 2559,
      "Ġsibe": 2560,
      "Ġesiteshini": 2561,
      "Ġimiphumela": 2562,
      "ĠBu": 2563,
      "liphi": 2564,
      "Ġisibalo": 2565,
      "Ġwakwa": 2566,
      "ĠKho": 2567,
      "ĠwezeMpilo": 2568,
      "nobu": 2569,
      "singa": 2570,
      "sheni": 2571,
      "mizwa": 2572,
      "Ġowen": 2573,
      "Ġkomhlaba": 2574,
      "zalwa": 2575,
      "phambili": 2576,
      "khokhwa": 2577,
      "hlophe": 2578,
      "vike": 2579,
      "qhamuka": 2580,
      "Ġbakwazi": 2581,
      "Ġ0": 2582,
      "Ġokungena": 2583,
      "quko": 2584,
      "qinisa": 2585,
      "zimele": 2586,
      "khiwe": 2587,
      "EL": 2588,
      "dini": 2589,
      "ndlulu": 2590,
      "mazi": 2591,
      "UN": 2592,
      "lezi": 2593,
      "ĠNje": 2594,
      "lekelela": 2595,
      "Ġjikelele": 2596,
      "Ġlokubulala": 2597,
      "Ġethile": 2598,
      "Ġukuya": 2599,
      "hlukile": 2600,
      "mpawu": 2601,
      "lungile": 2602,
      "qhatha": 2603,
      "dutshulwa": 2604,
      "layisen": 2605,
      "18": 2606,
      "Ġisikole": 2607,
      "Ġeminyakeni": 2608,
      "enja": 2609,
      "Ġingxenye": 2610,
      "Ġkanzima": 2611,
      "thunzi": 2612,
      "Ġsigaba": 2613,
      "Ġumasipala": 2614,
      "phawula": 2615,
      "gcwaliswe": 2616,
      "tifiketi": 2617,
      "miswa": 2618,
      "moya": 2619,
      "nhloko": 2620,
      "tholwa": 2621,
      "thumela": 2622,
      "celeni": 2623,
      "IFP": 2624,
      "Pho": 2625,
      "ĠAbantu": 2626,
      "khasimende": 2627,
      "Ġnta": 2628,
      "thuthuki": 2629,
      "ngqungquthela": 2630,
      "Ġkuqala": 2631,
      "Ġukubona": 2632,
      "muhla": 2633,
      "thulu": 2634,
      "nguquko": 2635,
      "qonde": 2636,
      "Ġyimi": 2637,
      "Ġothisha": 2638,
      "vala": 2639,
      "Ġkula": 2640,
      "Ġyokuxhumana": 2641,
      "voca": 2642,
      "ptain": 2643,
      "om": 2644,
      "rg": 2645,
      "ĠeMa": 2646,
      "thutha": 2647,
      "Ġezehlukene": 2648,
      "Nksz": 2649,
      "Ġowe": 2650,
      "Ġlobu": 2651,
      "ĠMe": 2652,
      "Ġwena": 2653,
      "dolobha": 2654,
      "Ġalu": 2655,
      "Ġnawe": 2656,
      "ĠSta": 2657,
      "mpendulo": 2658,
      "Nkantolo": 2659,
      "Ġifomu": 2660,
      "thina": 2661,
      "nyangweni": 2662,
      "hlangabe": 2663,
      "tÃĥ": 2664,
      "Ġ9": 2665,
      "ĠMi": 2666,
      "Ġngokwesi": 2667,
      "phoyiseni": 2668,
      "pheni": 2669,
      "mbama": 2670,
      "Ġnezingane": 2671,
      "Ġisidumbu": 2672,
      "Ġkwenziwa": 2673,
      "Ġakhe": 2674,
      "hlahla": 2675,
      "ril": 2676,
      "ĠAfrican": 2677,
      "Ġeyisi": 2678,
      "lodwa": 2679,
      "qalasizinda": 2680,
      "hlalakahle": 2681,
      "phinda": 2682,
      "Ġene": 2683,
      "phro": 2684,
      "Ġsiyo": 2685,
      "Ġkulezi": 2686,
      "Ġutshwala": 2687,
      "Ġezimele": 2688,
      "cishe": 2689,
      "wesilisa": 2690,
      "Ġemo": 2691,
      "Ġengena": 2692,
      "gungundlovu": 2693,
      "Ġabane": 2694,
      "Ad": 2695,
      "ĠZuma": 2696,
      "Ġkuzwelonke": 2697,
      "Lapho": 2698,
      "thiwe": 2699,
      "nalo": 2700,
      "Ġngokwen": 2701,
      "Ġinku": 2702,
      "ĠuRamaphosa": 2703,
      "teng": 2704,
      "Ġngizo": 2705,
      "Ġakekho": 2706,
      "nogada": 2707,
      "Ġnjengen": 2708,
      "ew": 2709,
      "ĠMu": 2710,
      "Ġobeku": 2711,
      "dakamizwa": 2712,
      "phazamise": 2713,
      "Ġiyiphi": 2714,
      "bopho": 2715,
      "gra": 2716,
      "Ġukufunda": 2717,
      "EFF": 2718,
      "Ġolwa": 2719,
      "Ġlona": 2720,
      "Ġkwayo": 2721,
      "Ġbesifazane": 2722,
      "Izindleko": 2723,
      "ĠngoMgqibelo": 2724,
      "Ġukum": 2725,
      "Ġsifundazwe": 2726,
      "Ġinqubo": 2727,
      "phephandaba": 2728,
      "hlaselwa": 2729,
      "Ġesifu": 2730,
      "Ġezizo": 2731,
      "Ġzibe": 2732,
      "qaleni": 2733,
      "voti": 2734,
      "nyiwe": 2735,
      "vivinywa": 2736,
      "Ġakwazi": 2737,
      "setshenziswe": 2738,
      "Aku": 2739,
      "Indawo": 2740,
      "xoxa": 2741,
      "Ġto": 2742,
      "Ġehhovisi": 2743,
      "ĠuP": 2744,
      "Ġaben": 2745,
      "Ġone": 2746,
      "outh": 2747,
      "uteng": 2748,
      "Ġokhulumela": 2749,
      "ĠAngi": 2750,
      "sini": 2751,
      "ngabe": 2752,
      "shani": 2753,
      "qashwa": 2754,
      "Ġowesifazane": 2755,
      "Ġngokulandela": 2756,
      "ĠYe": 2757,
      "ani": 2758,
      "wum": 2759,
      "Ġsamaphoyisa": 2760,
      "Meya": 2761,
      "dolobheni": 2762,
      "Ġukuyo": 2763,
      "funde": 2764,
      "phisa": 2765,
      "phakeli": 2766,
      "dlo": 2767,
      "Ġki": 2768,
      "khakheni": 2769,
      "Ġngenyanga": 2770,
      "teshi": 2771,
      "KZN": 2772,
      "Ġyayi": 2773,
      "Ġathi": 2774,
      "Ġbethu": 2775,
      "Sou": 2776,
      "lili": 2777,
      "Ġamathathu": 2778,
      "Ġc": 2779,
      "Ġuthole": 2780,
      "sihlalo": 2781,
      "kolo": 2782,
      "zI": 2783,
      "Ġdi": 2784,
      "Bho": 2785,
      "Re": 2786,
      "ngwe": 2787,
      "hoxi": 2788,
      "namandla": 2789,
      "Ġesingu": 2790,
      "Ġbam": 2791,
      "nquma": 2792,
      "Ġukuyi": 2793,
      "Ġwokuthi": 2794,
      "Be": 2795,
      "Ġkangaka": 2796,
      "Ġyayo": 2797,
      "Mengameli": 2798,
      "Ġkwenzeke": 2799,
      "ĠThu": 2800,
      "setshenziswayo": 2801,
      "yril": 2802,
      "nikwa": 2803,
      "khophi": 2804,
      "veli": 2805,
      "Ġsokuba": 2806,
      "Ġkuzoba": 2807,
      "Ġbathe": 2808,
      "khule": 2809,
      "Ġnjengom": 2810,
      "ol": 2811,
      "Ġkuse": 2812,
      "mehlo": 2813,
      "Ġnokuba": 2814,
      "Uthe": 2815,
      "shelwe": 2816,
      "Ri": 2817,
      "khale": 2818,
      "Ġwesifundazwe": 2819,
      "buyele": 2820,
      "Ġngubani": 2821,
      "ĠRamaphosa": 2822,
      "chitha": 2823,
      "melwe": 2824,
      "Ġusebenzise": 2825,
      "luphi": 2826,
      "thembu": 2827,
      "Ġinkulumo": 2828,
      "hhayi": 2829,
      "eningi": 2830,
      "Ġkamufi": 2831,
      "Ġumhlangano": 2832,
      "vulwa": 2833,
      "ĠsoMthetho": 2834,
      "ĠOmunye": 2835,
      "Ġzobu": 2836,
      "tholi": 2837,
      "luleke": 2838,
      "zinhlelo": 2839,
      "Ġ10": 2840,
      "dlulisa": 2841,
      "shiyagalo": 2842,
      "wazi": 2843,
      "tshelwa": 2844,
      "thuluzi": 2845,
      "Ġiqiniso": 2846,
      "Ġnjenga": 2847,
      "hhala": 2848,
      "Ġasebe": 2849,
      "ĠngoLwesibili": 2850,
      "Ġyiziphi": 2851,
      "Ġibhizinisi": 2852,
      "Ġoneminyaka": 2853,
      "tando": 2854,
      "Phini": 2855,
      "Ġbona": 2856,
      "Ġbaka": 2857,
      "Ġbathole": 2858,
      "Ġngabo": 2859,
      "Ġneze": 2860,
      "phenywa": 2861,
      "phathimandla": 2862,
      "Ġathe": 2863,
      "Ġwabe": 2864,
      "doti": 2865,
      "ree": 2866,
      "gibe": 2867,
      "Ġeyayi": 2868,
      "Ġukusetshenziswa": 2869,
      "Ġyokwe": 2870,
      "Ġinzuzo": 2871,
      "17": 2872,
      "Ġamaqembu": 2873,
      "nyiswa": 2874,
      "Chi": 2875,
      "Ġizitshudeni": 2876,
      "bhodi": 2877,
      "ĠÃ¢": 2878,
      "Ġekubeni": 2879,
      "Ġlwesi": 2880,
      "ĠZo": 2881,
      "hlwe": 2882,
      "igh": 2883,
      "Ġokuzo": 2884,
      "ngeza": 2885,
      "ban": 2886,
      "meya": 2887,
      "Ġeduze": 2888,
      "mane": 2889,
      "semba": 2890,
      "mbalwa": 2891,
      "Ju": 2892,
      "ĠUveze": 2893,
      "Ġyisiphi": 2894,
      "xhaso": 2895,
      "sungula": 2896,
      "South": 2897,
      "ntuthuko": 2898,
      "qoqa": 2899,
      "oya": 2900,
      "Ġbaku": 2901,
      "Ġezingeni": 2902,
      "ĠwezeMfundo": 2903,
      "Ġntambama": 2904,
      "14": 2905,
      "16": 2906,
      "tweni": 2907,
      "ĠuT": 2908,
      "Ġulimi": 2909,
      "sayen": 2910,
      "buhlungu": 2911,
      "Ġngemali": 2912,
      "Ġukukhuluma": 2913,
      "ĠDlamini": 2914,
      "yenza": 2915,
      "Ġhhayi": 2916,
      "Ġbengi": 2917,
      "ĠMkhize": 2918,
      "Ġnemisebenzi": 2919,
      "ĠuCaptain": 2920,
      "bonelelo": 2921,
      "jini": 2922,
      "Ġphezu": 2923,
      "Ġisaziso": 2924,
      "Ġesen": 2925,
      "Ġabaholi": 2926,
      "Ġokwen": 2927,
      "thelezi": 2928,
      "Ġathole": 2929,
      "ngaphandle": 2930,
      "Ġwezwe": 2931,
      "Ġkulolu": 2932,
      "finyelele": 2933,
      "ĠuColonel": 2934,
      "qwe": 2935,
      "sene": 2936,
      "kade": 2937,
      "Ġwona": 2938,
      "Ġubuholi": 2939,
      "Ġlakho": 2940,
      "vimbela": 2941,
      "Ġkungani": 2942,
      "Ġkulindeleke": 2943,
      "Ġumfundi": 2944,
      "Ġwazi": 2945,
      "cayi": 2946,
      "gcini": 2947,
      "sungulwa": 2948,
      "Ġemaphoyiseni": 2949,
      "Ġkunesi": 2950,
      "Ġnangoku": 2951,
      "Ġngokuzi": 2952,
      "vuse": 2953,
      "Gauteng": 2954,
      "Ġabasha": 2955,
      "Ġkweze": 2956,
      "ĠCyril": 2957,
      "Ġnomthetho": 2958,
      "gwebo": 2959,
      "Ġsimo": 2960,
      "...": 2961,
      "Mongameli": 2962,
      "Ġlithe": 2963,
      "ndlululo": 2964,
      "IN": 2965,
      "enxa": 2966,
      "mbile": 2967,
      "Ġyeningi": 2968,
      "ĠDe": 2969,
      "Ġizinqumo": 2970,
      "ĠuNo": 2971,
      "Ġbillion": 2972,
      "am": 2973,
      "loli": 2974,
      "Amafomu": 2975,
      "EC": 2976,
      "nikwe": 2977,
      "yalezo": 2978,
      "Ġoma": 2979,
      "bikwa": 2980,
      "sondele": 2981,
      "Ġezine": 2982,
      "ngozini": 2983,
      "sukela": 2984,
      "ĠTha": 2985,
      "Ġabalimi": 2986,
      "PS": 2987,
      "ĠSouth": 2988,
      "ĠPha": 2989,
      "nduna": 2990,
      "ziyo": 2991,
      "Ġnegama": 2992,
      "Ġisitatimende": 2993,
      "hambisani": 2994,
      "Ġ)": 2995,
      "Ġndlela": 2996,
      "Ġkamasipala": 2997,
      "Ġenze": 2998,
      "ndenini": 2999,
      "gqa": 3000,
      "Ġngasi": 3001,
      "Ġyikuphi": 3002,
      "ĠBhe": 3003,
      "Ġkwamanye": 3004,
      "199": 3005,
      "engameli": 3006,
      "sanda": 3007,
      "nter": 3008,
      "ĠCom": 3009,
      "boshiwe": 3010,
      "Ġezifana": 3011,
      "susa": 3012,
      "Ġeyodwa": 3013,
      "Ġkumbe": 3014,
      "boshwe": 3015,
      "Ġega": 3016,
      "hlali": 3017,
      "Ġbafuna": 3018,
      "cacile": 3019,
      "Ġabawu": 3020,
      "sivivinywa": 3021,
      "Ġize": 3022,
      "Ġokwenza": 3023,
      "dela": 3024,
      "enzo": 3025,
      "soka": 3026,
      "thanga": 3027,
      "Ġesem": 3028,
      "Amazinga": 3029,
      "bekwa": 3030,
      "Ġlawo": 3031,
      "Ġkungaba": 3032,
      "khalazo": 3033,
      "ĠKodwa": 3034,
      "ĠnoM": 3035,
      "bhasi": 3036,
      "ton": 3037,
      "Ramaphosa": 3038,
      "Ġuveze": 3039,
      "han": 3040,
      "wethu": 3041,
      "vide": 3042,
      "chibi": 3043,
      "Ġkuno": 3044,
      "thethwa": 3045,
      "holele": 3046,
      "Ġkubalulekile": 3047,
      "kla": 3048,
      "ler": 3049,
      "wona": 3050,
      "Ġzilandelwe": 3051,
      "phuza": 3052,
      "dadewabo": 3053,
      "Ġyawo": 3054,
      "humalo": 3055,
      "njiswa": 3056,
      "Ġ[": 3057,
      "ĠAsi": 3058,
      "hlonipha": 3059,
      "babili": 3060,
      "phethwe": 3061,
      "vule": 3062,
      "semqoka": 3063,
      "ĠngoLwesithathu": 3064,
      "dlovu": 3065,
      "Ġithi": 3066,
      "Ġnini": 3067,
      "Ġkwemali": 3068,
      "shelwa": 3069,
      "roli": 3070,
      "leso": 3071,
      "Ġeliphezulu": 3072,
      "ĠSizo": 3073,
      "EN": 3074,
      "Ġolwe": 3075,
      "muke": 3076,
      "Ġezifanele": 3077,
      "Ġizikhungo": 3078,
      "Ġkwezimali": 3079,
      "Ġkudingeka": 3080,
      "chaze": 3081,
      "ĠDi": 3082,
      "Ġcala": 3083,
      "Ġukungena": 3084,
      "Ġngecala": 3085,
      "xabano": 3086,
      "gibeli": 3087,
      "ĠuH": 3088,
      "limo": 3089,
      "bule": 3090,
      "ganda": 3091,
      "Ġeminingi": 3092,
      "13": 3093,
      "Ġizinyanga": 3094,
      "qasha": 3095,
      "ngqondo": 3096,
      "Ġngokwemi": 3097,
      "leyo": 3098,
      "Ġnonyaka": 3099,
      "ngeziwe": 3100,
      "qondile": 3101,
      "phazamisa": 3102,
      "size": 3103,
      "Ġokunye": 3104,
      "Ġkwezwe": 3105,
      "ly": 3106,
      "Ġunyaka": 3107,
      "nethi": 3108,
      "njani": 3109,
      "kwi": 3110,
      "vunyelwe": 3111,
      "ĠLesi": 3112,
      "gxile": 3113,
      "lalela": 3114,
      "Ġnokwenza": 3115,
      "nyawo": 3116,
      "ĠSA": 3117,
      "Ġngenkathi": 3118,
      "Izinyathelo": 3119,
      "lashwa": 3120,
      "lema": 3121,
      "Ġosetshenziswayo": 3122,
      "bhale": 3123,
      "ĠwezokuThu": 3124,
      "nakekela": 3125,
      "Ġokungenani": 3126,
      "Ġnhlangano": 3127,
      "ngaphakathi": 3128,
      "Ġohlelweni": 3129,
      "ĠUD": 3130,
      "sukwini": 3131,
      "tholampilo": 3132,
      "Ġlwakhe": 3133,
      "Ġnjengesi": 3134,
      "Disemba": 3135,
      "Bhodi": 3136,
      "video": 3137,
      "Ġkwawo": 3138,
      "Ġbezo": 3139,
      "ĠSo": 3140,
      "zwayo": 3141,
      "Ġnaseku": 3142,
      "Ġnjengamanje": 3143,
      "hlanganyela": 3144,
      "Ġagcwaliswe": 3145,
      "Ġsizi": 3146,
      "Ġingozi": 3147,
      "thule": 3148,
      "Ġisivumelwano": 3149,
      "Ġukusiza": 3150,
      "Ġizimo": 3151,
      "hlukana": 3152,
      "lahlekelwa": 3153,
      "od": 3154,
      "Ġisiqa": 3155,
      "kheli": 3156,
      "Ġkobu": 3157,
      "ĠweTheku": 3158,
      "Uhlelo": 3159,
      "vimba": 3160,
      "Ġemzini": 3161,
      "hlelwa": 3162,
      "Ġ199": 3163,
      "Ġphezulu": 3164,
      "ĠuC": 3165,
      "Ġasa": 3166,
      "limele": 3167,
      "hlele": 3168,
      "Ġezinkundleni": 3169,
      "ĠThembeka": 3170,
      "mlomo": 3171,
      "kuthi": 3172,
      "sesi": 3173,
      "Ġelinga": 3174,
      "Lezi": 3175,
      "ĠngoLwesine": 3176,
      "Zikalala": 3177,
      "Ġyodaba": 3178,
      "mukelwa": 3179,
      "komba": 3180,
      "Ġkwethu": 3181,
      "Ġizifo": 3182,
      "Silo": 3183,
      "thoko": 3184,
      "bhekwa": 3185,
      "Ġkulowo": 3186,
      "Ġkuvele": 3187,
      "Ġkunezi": 3188,
      "sontweni": 3189,
      "Ġesiyi": 3190,
      "mbangela": 3191,
      "ot": 3192,
      "Ġukhetho": 3193,
      "Ġiyi": 3194,
      "Ġezingama": 3195,
      "zenzo": 3196,
      "Ġemhlanganweni": 3197,
      "Ġnamanye": 3198,
      "cubu": 3199,
      "Abantu": 3200,
      "Ġayisi": 3201,
      "thize": 3202,
      "tric": 3203,
      "bandakanya": 3204,
      "thumele": 3205,
      "Ġemibili": 3206,
      "Ngakho": 3207,
      "ĠuZo": 3208,
      "qobile": 3209,
      "qekile": 3210,
      "nyuka": 3211,
      "tter": 3212,
      "ĠLu": 3213,
      "Izincazelo": 3214,
      "duzane": 3215,
      "Ġnezidingo": 3216,
      "reli": 3217,
      "mfi": 3218,
      "londolo": 3219,
      "tholile": 3220,
      "Ġnango": 3221,
      "kwabo": 3222,
      "zuza": 3223,
      "Ġizinhlaka": 3224,
      "gcineni": 3225,
      "ndwe": 3226,
      "Ġabasa": 3227,
      "Ġamadoda": 3228,
      "Ġngokunga": 3229,
      "Lesi": 3230,
      "kanye": 3231,
      "Ġnohlelo": 3232,
      "Ġizindlu": 3233,
      "Ġumthombo": 3234,
      "ĠyeMantshi": 3235,
      "dalulwa": 3236,
      "ngco": 3237,
      "ciko": 3238,
      "Ġithimba": 3239,
      "Ġnezinhlelo": 3240,
      "hlanhla": 3241,
      "bukeka": 3242,
      "Ġangeke": 3243,
      "ĠĠĠĠĠĠĠĠ": 3244,
      "Ġkukho": 3245,
      "bekwe": 3246,
      "Ġnokwa": 3247,
      "thando": 3248,
      "kenye": 3249,
      "nxuse": 3250,
      "culazi": 3251,
      "Ġintela": 3252,
      "khumbi": 3253,
      "ad": 3254,
      "Ġucwaningo": 3255,
      "caleni": 3256,
      "Ġweza": 3257,
      "khathazekile": 3258,
      "Ġco": 3259,
      "Ġsikole": 3260,
      "Ġabezi": 3261,
      "Ġejele": 3262,
      "qokwa": 3263,
      "Ġyinto": 3264,
      "shele": 3265,
      "jani": 3266,
      "zwakala": 3267,
      "rate": 3268,
      "qhubekayo": 3269,
      "Ġyomphakathi": 3270,
      "ld": 3271,
      "Ġumoya": 3272,
      "ĠloMkhandlu": 3273,
      "sula": 3274,
      "sekela": 3275,
      "Ġnakho": 3276,
      "fiso": 3277,
      "National": 3278,
      "ĠNoma": 3279,
      "tatimen": 3280,
      "xhu": 3281,
      "hlehli": 3282,
      "Ġkunoku": 3283,
      "phambi": 3284,
      "fula": 3285,
      "Ġkwase": 3286,
      "Ġnokunye": 3287,
      "Ġmthetho": 3288,
      "Umuntu": 3289,
      "lethe": 3290,
      "ndlo": 3291,
      "Ġsiba": 3292,
      "Ġisidingo": 3293,
      "Ġinkampani": 3294,
      "dlulisela": 3295,
      "cto": 3296,
      "Ġ12": 3297,
      "Ġkubona": 3298,
      "Ġeminye": 3299,
      "Ġomasipala": 3300,
      "Ġngokusemthethweni": 3301,
      "Ġizinkampani": 3302,
      "didiye": 3303,
      "nka": 3304,
      "Ġwayi": 3305,
      "Ġisigaba": 3306,
      "vikele": 3307,
      "gogo": 3308,
      "xazulula": 3309,
      "Ġabamnyama": 3310,
      "xoxisana": 3311,
      "Ġfor": 3312,
      "landele": 3313,
      "nawo": 3314,
      "theli": 3315,
      "Ġisiqiniseko": 3316,
      "hloli": 3317,
      "vikelwa": 3318,
      "Ġifayela": 3319,
      "BC": 3320,
      "Ġoyedwa": 3321,
      "mukelwe": 3322,
      "Ġisikhundla": 3323,
      "Ġzalo": 3324,
      "Ġabu": 3325,
      "mangalelwa": 3326,
      "laba": 3327,
      "vunyelwa": 3328,
      "ĠRa": 3329,
      "ĠeGoli": 3330,
      "nqo": 3331,
      "ntsho": 3332,
      "us": 3333,
      "Ġongum": 3334,
      "Ġnami": 3335,
      "Ġnendawo": 3336,
      "Ġnomphakathi": 3337,
      "jondolo": 3338,
      "kokuqala": 3339,
      "nza": 3340,
      "Ġkunjalo": 3341,
      "Ġngesonto": 3342,
      "ĠUNgqongqoshe": 3343,
      "Ġebezi": 3344,
      "Ġyiliphi": 3345,
      "ĠbaseNingizimu": 3346,
      "jwayele": 3347,
      "vakasha": 3348,
      "Su": 3349,
      "Ġizinhlobo": 3350,
      "jongo": 3351,
      "Ġukwakha": 3352,
      "Ġindlu": 3353,
      "Ġnalabo": 3354,
      "Ġamakhono": 3355,
      "hlezi": 3356,
      "Ġyezin": 3357,
      "Ġencane": 3358,
      "Ġiningi": 3359,
      "Ġukufinyelela": 3360,
      "Ġnolwazi": 3361,
      "Ġyingakho": 3362,
      "Ġnokunga": 3363,
      "ĠNe": 3364,
      "Kumele": 3365,
      "senti": 3366,
      "Vula": 3367,
      "kusho": 3368,
      "throli": 3369,
      "Ġuye": 3370,
      "ville": 3371,
      "Ġkwenza": 3372,
      "25": 3373,
      "pro": 3374,
      "Ġbaye": 3375,
      "fani": 3376,
      "Ġlokuqala": 3377,
      "Ġokwamanje": 3378,
      "Ġefuna": 3379,
      "dale": 3380,
      "lawuli": 3381,
      "dluliselwa": 3382,
      "thunyelwe": 3383,
      "ĠIzolo": 3384,
      "ted": 3385,
      "menenja": 3386,
      "ĠPar": 3387,
      "Ġyesigameko": 3388,
      "Ġuthisha": 3389,
      "ziphatha": 3390,
      "yina": 3391,
      "Ġkwazo": 3392,
      "Ġnakuba": 3393,
      "khawunti": 3394,
      "gqe": 3395,
      "ĠeSi": 3396,
      "cal": 3397,
      "Ġelikhulu": 3398,
      "Ġemithathu": 3399,
      "pulazi": 3400,
      "sosha": 3401,
      "Ġsilandelwe": 3402,
      "Ġnemali": 3403,
      "Ġngenhla": 3404,
      "mbewu": 3405,
      "gcinwa": 3406,
      "Ġluzo": 3407,
      "MA": 3408,
      "sayo": 3409,
      "Ġobala": 3410,
      "bopha": 3411,
      "Ġngesa": 3412,
      "qeqeshwa": 3413,
      "Jaji": 3414,
      "cho": 3415,
      "Ġiba": 3416,
      "nandi": 3417,
      "muthi": 3418,
      "Ġyeze": 3419,
      "qeqesha": 3420,
      "dalwa": 3421,
      "Ġkuphi": 3422,
      "sona": 3423,
      "dile": 3424,
      "Ġlelo": 3425,
      "Ġnomndeni": 3426,
      "ĠPro": 3427,
      "khiqizi": 3428,
      "Ġkalula": 3429,
      "hlengi": 3430,
      "sheshe": 3431,
      "Ġizincwadi": 3432,
      "bulawe": 3433,
      "baba": 3434,
      "Ġukubulala": 3435,
      "Ġozayo": 3436,
      "Ġsiyi": 3437,
      "Ġnginga": 3438,
      "Ġnomsebenzi": 3439,
      "ir": 3440,
      "lale": 3441,
      "melo": 3442,
      "Ġngaphezulu": 3443,
      "ĠUqhube": 3444,
      "phon": 3445,
      "ĠNqobile": 3446,
      "phumelele": 3447,
      "Ġuphinde": 3448,
      "Ġwezo": 3449,
      "IS": 3450,
      "Ukwe": 3451,
      "Ġeceleni": 3452,
      "Ġnamuhla": 3453,
      "thunywa": 3454,
      "Mali": 3455,
      "Ġkungen": 3456,
      "Ġukusi": 3457,
      "vamile": 3458,
      "tasa": 3459,
      "Meyi": 3460,
      "Lungu": 3461,
      "ĠiNingizimu": 3462,
      "Ġkulabo": 3463,
      "Ġngeza": 3464,
      "ndiza": 3465,
      "Kufanele": 3466,
      "ĠNgiya": 3467,
      "tatimendeni": 3468,
      "bekiwe": 3469,
      "khuphu": 3470,
      "culi": 3471,
      "ngamele": 3472,
      "Ġezikhungweni": 3473,
      "Ġngokugcwele": 3474,
      "phelo": 3475,
      "Ġisibonelo": 3476,
      "ĠweN": 3477,
      "vakashi": 3478,
      "Ubu": 3479,
      "Ġekhuluma": 3480,
      "lokho": 3481,
      "Ġababa": 3482,
      "Ġabathathu": 3483,
      "Ġamasha": 3484,
      "ngiso": 3485,
      "Ġlokwe": 3486,
      "Ġyiluphi": 3487,
      "Ġnamaphoyisa": 3488,
      "tshalwa": 3489,
      "24": 3490,
      "bandlululo": 3491,
      "Ġbasi": 3492,
      "xhasa": 3493,
      "ĠuB": 3494,
      "Ġbakuleli": 3495,
      "nyane": 3496,
      "phakamisa": 3497,
      "Ġkwamanzi": 3498,
      "Khomishani": 3499,
      "dayiswa": 3500,
      "Ġumuzi": 3501,
      "phreli": 3502,
      "Ġkabanzi": 3503,
      "ngakapheli": 3504,
      "nciphisa": 3505,
      "dutshulwe": 3506,
      "ok": 3507,
      "Ġnathi": 3508,
      "Komi": 3509,
      "Ġyokuthola": 3510,
      "Ġwenza": 3511,
      "ncinti": 3512,
      "id": 3513,
      "Ġuyise": 3514,
      "theka": 3515,
      "funwa": 3516,
      "Ġwawu": 3517,
      "Ġbeli": 3518,
      "valwe": 3519,
      "Ġkwizi": 3520,
      "Ġkusasa": 3521,
      "vota": 3522,
      "Es": 3523,
      "ndweni": 3524,
      "Ġukufaka": 3525,
      "hlasela": 3526,
      "Ġkwabe": 3527,
      "debe": 3528,
      "ĠPa": 3529,
      "Isicelo": 3530,
      "per": 3531,
      "Shaya": 3532,
      "Ġnabasebenzi": 3533,
      "Ġezinkulu": 3534,
      "Ġndawonye": 3535,
      "Janu": 3536,
      "Fe": 3537,
      "landa": 3538,
      "yoka": 3539,
      "ndabeni": 3540,
      "Ġisikhungo": 3541,
      "hleni": 3542,
      "Ġliya": 3543,
      "jabula": 3544,
      "Ġngokomthetho": 3545,
      "Unga": 3546,
      "Ġezise": 3547,
      "memezelo": 3548,
      "vumelekile": 3549,
      "kokhe": 3550,
      "Ġkwathi": 3551,
      "Jo": 3552,
      "Ġekhona": 3553,
      "Ġisibhamu": 3554,
      "hlose": 3555,
      "Ġnezinto": 3556,
      "hloniphe": 3557,
      "bonisana": 3558,
      "Ġukuqinisekisile": 3559,
      "mbila": 3560,
      "Ġimibiko": 3561,
      "Ġelilodwa": 3562,
      "qinile": 3563,
      "Ġkuyona": 3564,
      "ĠAbanye": 3565,
      "IV": 3566,
      "site": 3567,
      "thembe": 3568,
      "ĠuMo": 3569,
      "Ra": 3570,
      "ĠuZ": 3571,
      "kila": 3572,
      "Ġngayi": 3573,
      "vale": 3574,
      "Ġelise": 3575,
      "tshelwe": 3576,
      "Fu": 3577,
      "sobala": 3578,
      "bhekiswe": 3579,
      "Ġngalokhu": 3580,
      "ngesi": 3581,
      "gatshaneni": 3582,
      "ncwa": 3583,
      "tshi": 3584,
      "makethe": 3585,
      "ĠkuM": 3586,
      "Ġkuhulumeni": 3587,
      "khand": 3588,
      "thoba": 3589,
      "Ġngokuhambisana": 3590,
      "sebenzayo": 3591,
      "Ġuyazi": 3592,
      "ĉĉĉĉĉĉĉĉ": 3593,
      "MS": 3594,
      "Ġefanayo": 3595,
      "man": 3596,
      "Ġabahlala": 3597,
      "biwa": 3598,
      "ĠSha": 3599,
      "hlukumeza": 3600,
      "Ġneminye": 3601,
      "ĠRo": 3602,
      "kokhelo": 3603,
      "Ġamaphepha": 3604,
      "veni": 3605,
      "Ġimpela": 3606,
      "kani": 3607,
      "Ġbethi": 3608,
      "Ġkohlelo": 3609,
      "stela": 3610,
      "ĠHa": 3611,
      "nkosikazi": 3612,
      "akhawunti": 3613,
      "kthi": 3614,
      "Ġuhlobo": 3615,
      "zakwabo": 3616,
      "jaji": 3617,
      "Ġemotweni": 3618,
      "Shayamthetho": 3619,
      "Pa": 3620,
      "Ġukuzo": 3621,
      "Ġesifanele": 3622,
      "hlabathi": 3623,
      "ngula": 3624,
      "Ġakho": 3625,
      "Ġlabantu": 3626,
      "Ġemihlanu": 3627,
      "Seben": 3628,
      "hlangabezana": 3629,
      "Ġekwen": 3630,
      "Ġngaphezu": 3631,
      "qalile": 3632,
      "ration": 3633,
      "hlengikazi": 3634,
      "40": 3635,
      "ngqa": 3636,
      "Ġentsha": 3637,
      "holwa": 3638,
      "Ġimibono": 3639,
      "Khaya": 3640,
      "ven": 3641,
      "Ġde": 3642,
      "Ġukubhekana": 3643,
      "miswe": 3644,
      "Ġumthengi": 3645,
      "Ġnokuyi": 3646,
      "bhekwe": 3647,
      "Ġelinye": 3648,
      "Ġkuleyo": 3649,
      "menye": 3650,
      "Ġemazweni": 3651,
      "Ġlomphakathi": 3652,
      "Njengoba": 3653,
      "100": 3654,
      "khemi": 3655,
      "Ġngokuphelele": 3656,
      "Ġkubalwa": 3657,
      "ĠwaseNingizimu": 3658,
      "Ġngaleso": 3659,
      "Ġindodana": 3660,
      "layisensi": 3661,
      "Ġisiqalo": 3662,
      "khandlwini": 3663,
      "malanga": 3664,
      "matric": 3665,
      "Ġkwesigaba": 3666,
      "ĠZa": 3667,
      "pulazini": 3668,
      "Ġkwakho": 3669,
      "culo": 3670,
      "gcizelela": 3671,
      "Ġunom": 3672,
      "Ġabaku": 3673,
      "Ġsinqumo": 3674,
      "pheleni": 3675,
      "Ġinkosi": 3676,
      "Ġzokusebenza": 3677,
      "tini": 3678,
      "Ġqembu": 3679,
      "Ġnasezi": 3680,
      "Ġnyakenye": 3681,
      "buyiselwa": 3682,
      "isi": 3683,
      "linga": 3684,
      "ĠuMkhandlu": 3685,
      "tsheni": 3686,
      "giji": 3687,
      "khumbula": 3688,
      "IDP": 3689,
      "21": 3690,
      "Ġre": 3691,
      "sevisi": 3692,
      "Ġukulwa": 3693,
      "sabelo": 3694,
      "Ġizifundo": 3695,
      "Ġwaku": 3696,
      "thukiswa": 3697,
      "thwala": 3698,
      "Januwari": 3699,
      "Cha": 3700,
      "ikelele": 3701,
      "Ġeziphuthumayo": 3702,
      "Ġyomthetho": 3703,
      "Ġsabantu": 3704,
      "lisayo": 3705,
      "qile": 3706,
      "ĠTo": 3707,
      "hambele": 3708,
      "Vikela": 3709,
      "Ġngasinye": 3710,
      "klo": 3711,
      "Ġokwenzeka": 3712,
      "Ġbantu": 3713,
      "caca": 3714,
      "Ġngokusebenzisa": 3715,
      "zwaka": 3716,
      "toli": 3717,
      "Ġlula": 3718,
      "Ġkwenye": 3719,
      "hliziyo": 3720,
      "dlulise": 3721,
      "hambisane": 3722,
      "thandana": 3723,
      "memezele": 3724,
      "ble": 3725,
      "ward": 3726,
      "Ġeneminyaka": 3727,
      "Ġkuvela": 3728,
      "Ġezithinta": 3729,
      "Ġamabhizinisi": 3730,
      "Ġselokhu": 3731,
      "gcinwe": 3732,
      "shushi": 3733,
      "Somlomo": 3734,
      "hlukahlukene": 3735,
      "vakashela": 3736,
      "qinisekiswe": 3737,
      "ngcu": 3738,
      "nxephe": 3739,
      "sekho": 3740,
      "Ġesigatshaneni": 3741,
      "daweni": 3742,
      "Ġokuthile": 3743,
      "ĠKumele": 3744,
      "thwalo": 3745,
      "Ġngokwemibandela": 3746,
      "mantshi": 3747,
      "Ġoba": 3748,
      "Ġwaze": 3749,
      "Ġnokusebenza": 3750,
      "phini": 3751,
      "phuzu": 3752,
      "njini": 3753,
      "yunyana": 3754,
      "Ġokwaku": 3755,
      "Ġ:": 3756,
      "Ġevela": 3757,
      "sika": 3758,
      "bucayi": 3759,
      "Ġeziphathelene": 3760,
      "limaza": 3761,
      "Ġbenze": 3762,
      "hlonishwa": 3763,
      "Ġngodaba": 3764,
      "Ġesizo": 3765,
      "Ġlithole": 3766,
      "Ġkwemisebenzi": 3767,
      "Ephreli": 3768,
      "keza": 3769,
      "Ġsokwe": 3770,
      "phendule": 3771,
      "31": 3772,
      "thaqa": 3773,
      "shayisa": 3774,
      "celwa": 3775,
      "ÂĢÂķ": 3776,
      "qen": 3777,
      "ste": 3778,
      "enza": 3779,
      "Ġsifo": 3780,
      "ĠuMengameli": 3781,
      "hlangane": 3782,
      "rans": 3783,
      "mpilweni": 3784,
      "Nobhala": 3785,
      "ĠBeku": 3786,
      "qwaba": 3787,
      "We": 3788,
      "Ġgo": 3789,
      "wele": 3790,
      "namba": 3791,
      "Ġneza": 3792,
      "qapha": 3793,
      "ĠZwane": 3794,
      "linganiso": 3795,
      "Ġnalapho": 3796,
      "quke": 3797,
      "bhebhe": 3798,
      "Ġmasi": 3799,
      "Ġayikho": 3800,
      "Shaka": 3801,
      "Ġokukhulunywa": 3802,
      "RS": 3803,
      "rth": 3804,
      "Ġthina": 3805,
      "silisa": 3806,
      "Ġnabezindaba": 3807,
      "Ġakumele": 3808,
      "chunu": 3809,
      "Ġuqale": 3810,
      "makhelwane": 3811,
      "Ġintuthuko": 3812,
      "Ġndaba": 3813,
      "sazwe": 3814,
      "Ġeziwu": 3815,
      "Ġezikhona": 3816,
      "phefu": 3817,
      "phoqa": 3818,
      "suswa": 3819,
      "Ġwokuqala": 3820,
      "makhaya": 3821,
      "bekela": 3822,
      "midlalo": 3823,
      "ngubo": 3824,
      "Ġyingxenye": 3825,
      "nyiswe": 3826,
      "Khomishana": 3827,
      "Ġephakeme": 3828,
      "mizi": 3829,
      "Ġsifuna": 3830,
      "jekthi": 3831,
      "qokwe": 3832,
      "dlali": 3833,
      "cwaningi": 3834,
      "Ġolunga": 3835,
      "cy": 3836,
      "Ġehlukene": 3837,
      "phesenti": 3838,
      "cob": 3839,
      "SABC": 3840,
      "Ġokwesi": 3841,
      "dlelwane": 3842,
      "phethroli": 3843,
      "Ġnokuzi": 3844,
      "ĠCha": 3845,
      "Ġnesimo": 3846,
      "Ġwenze": 3847,
      "dlelwano": 3848,
      "ssion": 3849,
      "sondelene": 3850,
      "\".": 3851,
      "Ġuke": 3852,
      "mama": 3853,
      "Ġothile": 3854,
      "Ġezintsha": 3855,
      "Ġamazwi": 3856,
      "ngisi": 3857,
      "valo": 3858,
      "hluphe": 3859,
      "Ġomhlaba": 3860,
      "tifikedi": 3861,
      "lungiselela": 3862,
      "Bha": 3863,
      "mkhulu": 3864,
      "Ġnaso": 3865,
      "Mashi": 3866,
      "Ġebesi": 3867,
      "sayensi": 3868,
      "Du": 3869,
      "bike": 3870,
      "thuli": 3871,
      "kwesi": 3872,
      "Ġemndenini": 3873,
      "Ġizinhlangano": 3874,
      "Ukuze": 3875,
      "bhekane": 3876,
      "vakashele": 3877,
      "shintsho": 3878,
      "Eskom": 3879,
      "qukethwe": 3880,
      "60": 3881,
      "Ġukuqhubeka": 3882,
      "Ġngemva": 3883,
      "Ġimindeni": 3884,
      "Ġyokusebenza": 3885,
      "Ġsobu": 3886,
      "Ġkulokhu": 3887,
      "Ġeledlule": 3888,
      "aba": 3889,
      "lume": 3890,
      "Ġsisa": 3891,
      "Ġkwalesi": 3892,
      "hlelwe": 3893,
      "mbusazwe": 3894,
      "hlinzekwa": 3895,
      "Ġabafuna": 3896,
      "landeli": 3897,
      "phikisana": 3898,
      "AT": 3899,
      "Ndunankulu": 3900,
      "yama": 3901,
      "Ġsithi": 3902,
      "Ġkwabesifazane": 3903,
      "Uni": 3904,
      "kula": 3905,
      "burg": 3906,
      "Ġwengane": 3907,
      "ndakanye": 3908,
      "ngasese": 3909,
      "sabalala": 3910,
      "Ġengekho": 3911,
      "yile": 3912,
      "qashwe": 3913,
      "Ġimishini": 3914,
      "gilwa": 3915,
      "eneral": 3916,
      "Ġnomthelela": 3917,
      "ĠTa": 3918,
      "Ġwendawo": 3919,
      "donsa": 3920,
      "bhikisho": 3921,
      "liki": 3922,
      "theleni": 3923,
      "Ġnezoku": 3924,
      "bhekelele": 3925,
      "yenzeka": 3926,
      "ngcwabo": 3927,
      "hambelana": 3928,
      "yoku": 3929,
      "Ġigunya": 3930,
      "lowo": 3931,
      "Ġisithunzi": 3932,
      "Ġkwaze": 3933,
      "Ġzawo": 3934,
      "town": 3935,
      "xolo": 3936,
      "Lolu": 3937,
      "cimbini": 3938,
      "Ha": 3939,
      "nazo": 3940,
      "Ġabathintekayo": 3941,
      "kwamanje": 3942,
      "mbono": 3943,
      "Ġkomphakathi": 3944,
      "Ġnemigomo": 3945,
      "Ġizandla": 3946,
      "Ġngokubambisana": 3947,
      "hlawulo": 3948,
      "ĠYize": 3949,
      "Juni": 3950,
      "Ġkonyaka": 3951,
      "ĠKwe": 3952,
      "como": 3953,
      "den": 3954,
      "hambi": 3955,
      "Ġukuthuthukisa": 3956,
      "thaka": 3957,
      "phetha": 3958,
      "Ġemkhakheni": 3959,
      "gudu": 3960,
      "gwayi": 3961,
      "ĠwaseM": 3962,
      "hlawumbe": 3963,
      "bsite": 3964,
      "zame": 3965,
      "Ġizinhloso": 3966,
      "Ġenza": 3967,
      "Siya": 3968,
      "Ġlomsebenzi": 3969,
      "khethekile": 3970,
      "gcu": 3971,
      "ĠuK": 3972,
      "Ġintsha": 3973,
      "kholelwa": 3974,
      "Ġngaye": 3975,
      "ngoti": 3976,
      "vumile": 3977,
      "ĠHigh": 3978,
      "Ġume": 3979,
      "Ġbane": 3980,
      "khanya": 3981,
      "kiso": 3982,
      "Ġekhanda": 3983,
      "Ġumnikazi": 3984,
      "nyangeni": 3985,
      "Ġkwezo": 3986,
      "Ġziyo": 3987,
      "ĠAct": 3988,
      "ria": 3989,
      "Ġngezikhathi": 3990,
      "urban": 3991,
      "Ġeziyisithupha": 3992,
      "simu": 3993,
      "Ġamehlo": 3994,
      "hostela": 3995,
      "Ġezincane": 3996,
      "yutha": 3997,
      "gcekeni": 3998,
      "ledlule": 3999,
      "Ġikhona": 4000,
      "Ġnabe": 4001,
      "Ġesikhulu": 4002,
      "der": 4003,
      "Ġzakho": 4004,
      "port": 4005,
      "ĠLezi": 4006,
      "ĠJo": 4007,
      "vivinyo": 4008,
      ".]": 4009,
      "Ġ'": 4010,
      "Ġehambisana": 4011,
      "Ġukuku": 4012,
      "hlobene": 4013,
      "rea": 4014,
      "lungiselelo": 4015,
      "Ġomuhle": 4016,
      "hlahlandlela": 4017,
      "ĠBheki": 4018,
      "ww": 4019,
      "ĠuL": 4020,
      "thengwa": 4021,
      "Ġizizathu": 4022,
      "Ġsonto": 4023,
      "gwaza": 4024,
      "Ġsesifundazwe": 4025,
      "Ġkwazise": 4026,
      "Ġlibe": 4027,
      "Ġlokuba": 4028,
      "Ġnalokho": 4029,
      "lethwa": 4030,
      "Ġnohulumeni": 4031,
      "khulunywa": 4032,
      "mpesheni": 4033,
      "mayini": 4034,
      "Ġowesilisa": 4035,
      "Ġeziba": 4036,
      "nozI": 4037,
      "Ġenqu": 4038,
      "Ġnamacala": 4039,
      "Ġozi": 4040,
      "Ġziyi": 4041,
      "Ġyizin": 4042,
      "witter": 4043,
      "Ġwezimali": 4044,
      "phesheya": 4045,
      "rvi": 4046,
      "Ġukuthatha": 4047,
      "Ġukuphatha": 4048,
      "zona": 4049,
      "khadi": 4050,
      "bhalwa": 4051,
      "kulunkulu": 4052,
      "thinteka": 4053,
      "memezela": 4054,
      "ĠThulani": 4055,
      "Ripha": 4056,
      "khulisa": 4057,
      "Ġbezempilo": 4058,
      "qoqwa": 4059,
      "nyeni": 4060,
      "zinikela": 4061,
      "Ġkomnotho": 4062,
      "ĠDa": 4063,
      "hlukanisa": 4064,
      "HO": 4065,
      "Ġuhlaka": 4066,
      "ses": 4067,
      "ĠkaHulumeni": 4068,
      "thandi": 4069,
      "cia": 4070,
      "Ġzokwe": 4071,
      "Ġesezi": 4072,
      "KU": 4073,
      "dent": 4074,
      "gen": 4075,
      "Ġabakwa": 4076,
      "ĠkaMasipala": 4077,
      "hlanganiswa": 4078,
      "Ġkepha": 4079,
      "ĠuMthethosisekelo": 4080,
      "jwa": 4081,
      "kundla": 4082,
      "Ġaphinde": 4083,
      "Ġabasebenza": 4084,
      "Ġumshayeli": 4085,
      "Ġisikhalo": 4086,
      "khele": 4087,
      "tive": 4088,
      "bhekela": 4089,
      "zwana": 4090,
      "ĠHe": 4091,
      "ulayi": 4092,
      "mukelekile": 4093,
      "PA": 4094,
      "Ġimizamo": 4095,
      "shiyagalombili": 4096,
      "ĠiSa": 4097,
      "Ġkutholakale": 4098,
      "thulwe": 4099,
      "Ġnecala": 4100,
      "Ġsabo": 4101,
      "luleki": 4102,
      "ĠPri": 4103,
      "Ġkusuka": 4104,
      "et": 4105,
      "ut": 4106,
      "Phethe": 4107,
      "ĠDube": 4108,
      "qhathaniswa": 4109,
      "ngcupheni": 4110,
      "ing": 4111,
      "Ġkunom": 4112,
      "Ġizitshalo": 4113,
      "Ġkomunye": 4114,
      "xolisa": 4115,
      "sizathu": 4116,
      "Ġezazi": 4117,
      "ĠZulu": 4118,
      "kambiso": 4119,
      "thunyelwa": 4120,
      "Ġamancane": 4121,
      "vame": 4122,
      "vezwe": 4123,
      "Ġsasi": 4124,
      "Ġekuqaleni": 4125,
      "Ġkwesinye": 4126,
      "Ġkweminyaka": 4127,
      "cindezi": 4128,
      "qhe": 4129,
      "Ġumgomo": 4130,
      "Ġzayo": 4131,
      "ngenela": 4132,
      "Ġezayo": 4133,
      "Phoyisa": 4134,
      "kthoba": 4135,
      "mnyama": 4136,
      "Ġenge": 4137,
      "Ġizikhulu": 4138,
      "ngiswa": 4139,
      "ĠTe": 4140,
      "hlwini": 4141,
      "nk": 4142,
      "olo": 4143,
      "pen": 4144,
      "Ġbeyi": 4145,
      "ĠAs": 4146,
      "Ġluya": 4147,
      "Ġebekiwe": 4148,
      "thengisa": 4149,
      "ĠwezokuVikela": 4150,
      "Ġowo": 4151,
      "Ġngolwazi": 4152,
      "Ġamane": 4153,
      "khethwa": 4154,
      "Ġzomthetho": 4155,
      "hlabathini": 4156,
      "Ġangama": 4157,
      "hlaziya": 4158,
      "mayelana": 4159,
      "Ġis": 4160,
      "lona": 4161,
      "ngolo": 4162,
      "shade": 4163,
      "Ġzinto": 4164,
      "bhane": 4165,
      "Ġyokwenza": 4166,
      "Ġnamanje": 4167,
      "Ġbobabili": 4168,
      "Ngesikhathi": 4169,
      "soku": 4170,
      "Ġuhlu": 4171,
      "zinda": 4172,
      "kona": 4173,
      "Ġisizathu": 4174,
      "wenza": 4175,
      "valiwe": 4176,
      "kwazisa": 4177,
      "Umsebenzi": 4178,
      "ĠeMgungundlovu": 4179,
      "ĠNjengoba": 4180,
      "mhlophe": 4181,
      "ĠeS": 4182,
      "Ġigciwane": 4183,
      "Ġavele": 4184,
      "zala": 4185,
      "yoni": 4186,
      "kwakhiwa": 4187,
      "Ġngumuntu": 4188,
      "ĠUmsolwa": 4189,
      "ssa": 4190,
      "Ġutshele": 4191,
      "Ġiphoyisa": 4192,
      "loki": 4193,
      "fakela": 4194,
      "hlomula": 4195,
      "Ġyokuba": 4196,
      "thuthuka": 4197,
      "gunyaziwe": 4198,
      "Mphakathi": 4199,
      "ms": 4200,
      "sodwa": 4201,
      "kisini": 4202,
      "gcwalisa": 4203,
      "ction": 4204,
      "Ġukuxhumana": 4205,
      "ĠShe": 4206,
      "hlukani": 4207,
      "ĠNgoLwesi": 4208,
      "mpofu": 4209,
      "Ġungu": 4210,
      "Ġimibandela": 4211,
      "ĠKuya": 4212,
      "Ġkwabasebenzi": 4213,
      "bhola": 4214,
      "ngakanani": 4215,
      "Ġwi": 4216,
      "kelo": 4217,
      "Ġesinye": 4218,
      "catsha": 4219,
      "bonile": 4220,
      "rus": 4221,
      "kululeko": 4222,
      "Ġez": 4223,
      "ngamela": 4224,
      "Ġbaze": 4225,
      "Ġumyalelo": 4226,
      "Ġengaka": 4227,
      "pumalanga": 4228,
      "stern": 4229,
      "Cal": 4230,
      "mbene": 4231,
      "Ġnalesi": 4232,
      "Ġkwami": 4233,
      "Ġnamandla": 4234,
      "Ġkwezinto": 4235,
      "Ġkwemithetho": 4236,
      "ncike": 4237,
      "Ġbendabuko": 4238,
      "Khomishane": 4239,
      "ngqalasizinda": 4240,
      "lawo": 4241,
      "sekwa": 4242,
      "Ġkuzi": 4243,
      "Ġukuhamba": 4244,
      "yelo": 4245,
      "Ġezifu": 4246,
      "Ġkwanoma": 4247,
      "Ġyazo": 4248,
      "duma": 4249,
      "Ġngamaphoyisa": 4250,
      "AS": 4251,
      "She": 4252,
      "Ġphela": 4253,
      "thintwa": 4254,
      "buzwa": 4255,
      "Ġbangu": 4256,
      "ĠngoDisemba": 4257,
      "Ġnesa": 4258,
      "Ġimiphakathi": 4259,
      "zukulu": 4260,
      "ĠYo": 4261,
      "Ġngesimo": 4262,
      "jabulisa": 4263,
      "Ea": 4264,
      "Ġeqo": 4265,
      "Ġakazi": 4266,
      "Ġumkhankaso": 4267,
      "fica": 4268,
      "Ġelizo": 4269,
      "dodana": 4270,
      "Ġngokom": 4271,
      "Komidi": 4272,
      "Ye": 4273,
      "Ġkuwu": 4274,
      "nikela": 4275,
      "Ġukuvikela": 4276,
      "Ġnezindlela": 4277,
      "ĠJacob": 4278,
      "Ġethe": 4279,
      "Ġebalulekile": 4280,
      "Ġngalinye": 4281,
      "Ġnesikhathi": 4282,
      "Ġumkhandlu": 4283,
      "Ġselu": 4284,
      "khokhelwe": 4285,
      "Leli": 4286,
      "lense": 4287,
      "ĠkoMphakathi": 4288,
      "landisa": 4289,
      "vulwe": 4290,
      "Ġyezoku": 4291,
      "Ġangase": 4292,
      "Ġezinsukwini": 4293,
      "ngenelela": 4294,
      "dliwa": 4295,
      "Isa": 4296,
      "Ġekwa": 4297,
      "mani": 4298,
      "Ġothe": 4299,
      "gumbi": 4300,
      "leleka": 4301,
      "rvice": 4302,
      "Eku": 4303,
      "Ġuli": 4304,
      "Ġizikhathi": 4305,
      "Ġizikhalo": 4306,
      "Ġnalokhu": 4307,
      "ĠMba": 4308,
      "qephu": 4309,
      "buyisela": 4310,
      "phrojekthi": 4311,
      "Asi": 4312,
      "pp": 4313,
      "khombise": 4314,
      "Ġngempumelelo": 4315,
      "kwethu": 4316,
      "Ġekugcineni": 4317,
      "Ġemahhovisi": 4318,
      "Ġesesi": 4319,
      "Ġyendawo": 4320,
      "Ġnasema": 4321,
      "yuka": 4322,
      "Ngiya": 4323,
      "ĠState": 4324,
      "Ġngayinye": 4325,
      "zimbeni": 4326,
      "Ġkuphele": 4327,
      "misiwe": 4328,
      "lwana": 4329,
      "Ġumgwaqo": 4330,
      "bhinethi": 4331,
      "Ġakufanele": 4332,
      "Ġngalokho": 4333,
      "Hla": 4334,
      "Tha": 4335,
      "esi": 4336,
      "kude": 4337,
      "Ġkungu": 4338,
      "Ġosomabhizinisi": 4339,
      "ĠnoMnuz": 4340,
      "Ġwamaphoyisa": 4341,
      "shule": 4342,
      "feza": 4343,
      "ĠJu": 4344,
      "thulo": 4345,
      "Ġkwempahla": 4346,
      "ĠLaba": 4347,
      "Ġkuvulwe": 4348,
      "mfihlo": 4349,
      "Okthoba": 4350,
      "ef": 4351,
      "Ġcishe": 4352,
      "Ġokhe": 4353,
      "Ġabadala": 4354,
      "Ġesithile": 4355,
      "Ġlemi": 4356,
      "Ġmaqede": 4357,
      "Ġubugebengu": 4358,
      "Ġngezinto": 4359,
      "Ġbenza": 4360,
      "ord": 4361,
      "80": 4362,
      "Ġukuphawula": 4363,
      "Ġwabantu": 4364,
      "Ġyokuhlala": 4365,
      "Ġkwamandla": 4366,
      "kiswano": 4367,
      "Caller": 4368,
      "hwa": 4369,
      "Ġukwen": 4370,
      "hanjiswa": 4371,
      "naba": 4372,
      "buyisa": 4373,
      "Ġsikwazi": 4374,
      "dabeni": 4375,
      "Ġbefuna": 4376,
      "29": 4377,
      "Ġesise": 4378,
      "ĠNtuli": 4379,
      "timela": 4380,
      "nzini": 4381,
      "ĠCent": 4382,
      "Ġlwase": 4383,
      "Ġphambilini": 4384,
      "Ġkumuntu": 4385,
      "fuleni": 4386,
      "Ġokuthi": 4387,
      "hlolwe": 4388,
      "ntombazane": 4389,
      "ĠSifuna": 4390,
      "Ġkuzona": 4391,
      "Ġoseku": 4392,
      "Ġindodakazi": 4393,
      "Ġindima": 4394,
      "Ġphephandaba": 4395,
      "Ġukwenziwa": 4396,
      "Ġangene": 4397,
      "tshen": 4398,
      "ĠnguNgqongqoshe": 4399,
      "nqume": 4400,
      "Ġlwaba": 4401,
      "gwema": 4402,
      "27": 4403,
      "Julayi": 4404,
      "mnandi": 4405,
      "Ġhlobo": 4406,
      "ngculazi": 4407,
      "zila": 4408,
      "Ġabayisi": 4409,
      "Ġizifundazwe": 4410,
      "Ġsokuqala": 4411,
      "qhutshwa": 4412,
      "Ġukubamba": 4413,
      "nyuvesi": 4414,
      "shushisi": 4415,
      "Ġnanga": 4416,
      "Ġumlilo": 4417,
      "Ġkomuntu": 4418,
      "ĠNgokusho": 4419,
      "gy": 4420,
      "gco": 4421,
      "»Â": 4422,
      "Â»Â": 4423,
      "Ã¯": 4424,
      "zisi": 4425,
      "Ġbawu": 4426,
      "Ġinhloso": 4427,
      "Ġmaduze": 4428,
      "Ġzemfundo": 4429,
      "shwana": 4430,
      "phenyi": 4431,
      "Ġezama": 4432,
      "Isibonelo": 4433,
      "lahlekelwe": 4434,
      "Â»Â¿": 4435,
      "ngwini": 4436,
      "Ġnzima": 4437,
      "yikho": 4438,
      "ngomunye": 4439,
      "tic": 4440,
      "Ġsayo": 4441,
      "dokhu": 4442,
      "Ġzezempilo": 4443,
      "Ġolunye": 4444,
      "fowethu": 4445,
      "mpikiswano": 4446,
      "dedengu": 4447,
      "Uhulumeni": 4448,
      "Ġamakhulu": 4449,
      "Ġzindawo": 4450,
      "qukethe": 4451,
      "Ġlomndeni": 4452,
      "Ġ&": 4453,
      "Ġuhlangothi": 4454,
      "Ġempilweni": 4455,
      "seshini": 4456,
      "zabala": 4457,
      "Ġonke": 4458,
      "ĠkaM": 4459,
      "khamizi": 4460,
      "Ġ15": 4461,
      "hlakani": 4462,
      "Ġomncane": 4463,
      "Ġisandla": 4464,
      "ĠLeli": 4465,
      "Buthelezi": 4466,
      "UMnuz": 4467,
      "Ġabenza": 4468,
      "Ġwawo": 4469,
      "Ġumona": 4470,
      "Ġbeba": 4471,
      "tholakali": 4472,
      "ĠeP": 4473,
      "ĠUthi": 4474,
      "Ġokuhle": 4475,
      "Ġokuningi": 4476,
      "ding": 4477,
      "ĠSihle": 4478,
      "Ġkukahulumeni": 4479,
      "Ġomsebenzi": 4480,
      "Kapa": 4481,
      "Ġudoti": 4482,
      "ĠeH": 4483,
      "gashule": 4484,
      "Ġlayo": 4485,
      "Ġiminyango": 4486,
      "Ġlunga": 4487,
      "Ġwobu": 4488,
      "Ġmhlangano": 4489,
      "Kukhona": 4490,
      "khokhele": 4491,
      "ĠeMlaza": 4492,
      "bophezela": 4493,
      "versi": 4494,
      "cebook": 4495,
      "Ġekwenzeni": 4496,
      "28": 4497,
      "Ci": 4498,
      "LE": 4499,
      "Ġehla": 4500,
      "ĠiSi": 4501,
      "ĠkuMasipala": 4502,
      "Ġizingxenye": 4503,
      "Ġyisikhathi": 4504,
      "fice": 4505,
      "dudu": 4506,
      "Ġinqu": 4507,
      "sendaweni": 4508,
      "Ġkubandakanya": 4509,
      "Ġinombolo": 4510,
      "Ġnkonzo": 4511,
      "zeki": 4512,
      "bize": 4513,
      "Ġwathola": 4514,
      "bhaliswa": 4515,
      "bhubhane": 4516,
      "Ġnjengezi": 4517,
      "shonalanga": 4518,
      "nxephezelo": 4519,
      "Ġihhovisi": 4520,
      "bole": 4521,
      "Ġabaphathi": 4522,
      "bisi": 4523,
      "Ġngohlelo": 4524,
      "Ġamalunga": 4525,
      "Ġngezindlela": 4526,
      "Ġebeli": 4527,
      "35": 4528,
      "Ġuze": 4529,
      "website": 4530,
      "Ġukuhlola": 4531,
      "Ġisigameko": 4532,
      "qalisa": 4533,
      "hlomu": 4534,
      "gubane": 4535,
      "com": 4536,
      "send": 4537,
      "ĠWo": 4538,
      "ĠGa": 4539,
      "SARS": 4540,
      "bophezelo": 4541,
      "vikeli": 4542,
      "ĠPark": 4543,
      "nkinga": 4544,
      "linda": 4545,
      "biya": 4546,
      "Ġokusho": 4547,
      "vamise": 4548,
      "duli": 4549,
      "vemba": 4550,
      "hili": 4551,
      "ĠUmthombo": 4552,
      "ndulela": 4553,
      "ĠuBa": 4554,
      "Ġeno": 4555,
      "ĠiCovid": 4556,
      "phelela": 4557,
      "Ġokunge": 4558,
      "Ġkwezoku": 4559,
      "qaba": 4560,
      "setshenziselwa": 4561,
      "nenkinga": 4562,
      "shaywe": 4563,
      "zula": 4564,
      "ĠLoku": 4565,
      "ĠEzi": 4566,
      "londoloza": 4567,
      "enya": 4568,
      "Ġwakuleli": 4569,
      "Ġsiku": 4570,
      "Ġesihle": 4571,
      "ĠWoku": 4572,
      "Ġlwabo": 4573,
      "kame": 4574,
      "Ġngokunge": 4575,
      "zwela": 4576,
      "sheya": 4577,
      "Ġimikhakha": 4578,
      "gunyazwe": 4579,
      "nqanda": 4580,
      "Ġbokuthi": 4581,
      "ngcele": 4582,
      "Ġkufike": 4583,
      "Ġwaveza": 4584,
      "thunga": 4585,
      "qaphe": 4586,
      "ĠNi": 4587,
      "fikile": 4588,
      "vishini": 4589,
      "Ġangazi": 4590,
      "sp": 4591,
      "hlanzi": 4592,
      "vuza": 4593,
      "ĠyoMthethosisekelo": 4594,
      "ĠNgeke": 4595,
      "jabule": 4596,
      "ĠePi": 4597,
      "ĠiM": 4598,
      "ĠiCorona": 4599,
      "kamuva": 4600,
      "yeke": 4601,
      "Ġnomuntu": 4602,
      "Ġumshado": 4603,
      "Ġumzimba": 4604,
      "diza": 4605,
      "Ġkwelinye": 4606,
      "Ġkomasipala": 4607,
      "galelo": 4608,
      "Ġemini": 4609,
      "ntambo": 4610,
      "hwebo": 4611,
      "ĠuMasipala": 4612,
      "ĠyaseNingizimu": 4613,
      "Ġzendabuko": 4614,
      "Inhloso": 4615,
      "versity": 4616,
      "%.": 4617,
      "Ġecaleni": 4618,
      "Ġaze": 4619,
      "weli": 4620,
      "hlolo": 4621,
      "ĠCele": 4622,
      "Isigaba": 4623,
      "ĠNgcobo": 4624,
      "vocate": 4625,
      "Da": 4626,
      "mila": 4627,
      "Ġothi": 4628,
      "ĠoPhethe": 4629,
      "Ġnakwe": 4630,
      "Ġokungu": 4631,
      "mbana": 4632,
      "Ġngaphambili": 4633,
      "Ġubenga": 4634,
      "ĠX": 4635,
      "Ġha": 4636,
      "Ġmnyango": 4637,
      "Ġnkampani": 4638,
      "Ġabashayeli": 4639,
      "Ġnomunye": 4640,
      "Ġizibalo": 4641,
      "Ġwanga": 4642,
      "Ġsib": 4643,
      "shada": 4644,
      "Ġkwalokhu": 4645,
      "khela": 4646,
      "gasti": 4647,
      "bhaliswe": 4648,
      "zenza": 4649,
      "Ġkuboshwe": 4650,
      "zimande": 4651,
      "ĠuGrade": 4652,
      "23": 4653,
      "mina": 4654,
      "sondo": 4655,
      "Ġsithe": 4656,
      "Ġimikhiqizo": 4657,
      "Ġngenye": 4658,
      "Ġnguye": 4659,
      "xoshwa": 4660,
      "cube": 4661,
      "Ġubese": 4662,
      "ngenisa": 4663,
      "guqula": 4664,
      "mazisi": 4665,
      "lwi": 4666,
      "pla": 4667,
      "Ġuhla": 4668,
      "Ġuvele": 4669,
      "Ġeningi": 4670,
      "Ġkuyena": 4671,
      "zani": 4672,
      "Ġkangcono": 4673,
      "Ġisithombe": 4674,
      "ĠKuzo": 4675,
      "Ġnamalungu": 4676,
      "Ġomdala": 4677,
      "khubazeka": 4678,
      "Ġephathelene": 4679,
      "ĠkuR": 4680,
      "sane": 4681,
      "phasi": 4682,
      "Ġnganoma": 4683,
      "Ġamasu": 4684,
      "ĠKhumalo": 4685,
      "Ġzona": 4686,
      "qondisa": 4687,
      "ort": 4688,
      "mvula": 4689,
      "Ġowayengu": 4690,
      "Ġukuhlala": 4691,
      "ĠURamaphosa": 4692,
      "Ġamazinga": 4693,
      "payi": 4694,
      "Ġngamacala": 4695,
      "Ġngomsebenzi": 4696,
      "khasini": 4697,
      "cabange": 4698,
      "22": 4699,
      "Angi": 4700,
      "WA": 4701,
      "pri": 4702,
      "Ġehamba": 4703,
      "Ġechaza": 4704,
      "Ġinte": 4705,
      "Ġbesa": 4706,
      "kwamukela": 4707,
      "Ġyokuqala": 4708,
      "Umnyango": 4709,
      "qenjini": 4710,
      "Riphabhu": 4711,
      "twa": 4712,
      "uma": 4713,
      "kakhe": 4714,
      "Ġabangena": 4715,
      "sheli": 4716,
      "Ġumama": 4717,
      "Ġsezimali": 4718,
      "Ġnyanga": 4719,
      "ĠVi": 4720,
      "phazamiseka": 4721,
      "Nya": 4722,
      "Ġukuthenga": 4723,
      "Ġwaso": 4724,
      "Ġumphakeli": 4725,
      "teleka": 4726,
      "gqoke": 4727,
      "hlanganise": 4728,
      "CO": 4729,
      "xenye": 4730,
      "Ġinyanga": 4731,
      "Ġnkinga": 4732,
      "seKhaya": 4733,
      "Ġukuphepha": 4734,
      "Ġbaphinde": 4735,
      "shintshi": 4736,
      "Ġzombili": 4737,
      "ziwayo": 4738,
      "gqoka": 4739,
      "Ġezinkantolo": 4740,
      "ĠService": 4741,
      "Facebook": 4742,
      "Ġkunesidingo": 4743,
      "Ġumonakalo": 4744,
      "Hlo": 4745,
      "up": 4746,
      "ngxabano": 4747,
      "Ġedolobheni": 4748,
      "thembisa": 4749,
      "Ġiziguli": 4750,
      "Ġsemali": 4751,
      "Ġsenkantolo": 4752,
      "Ġimfundo": 4753,
      "ester": 4754,
      "selula": 4755,
      "Ġukusho": 4756,
      "sangu": 4757,
      "sulwa": 4758,
      "ĠNdlovu": 4759,
      "rity": 4760,
      "Ġngiyo": 4761,
      "Solwazi": 4762,
      "zezimali": 4763,
      "Ġwasi": 4764,
      "Ġokushiwo": 4765,
      "Ġkwezomnotho": 4766,
      "Ġsethu": 4767,
      "ĠIzin": 4768,
      "Ġlokusebenza": 4769,
      "Ġemiphakathini": 4770,
      "Ġengaphansi": 4771,
      "ĠHo": 4772,
      "boku": 4773,
      "nzana": 4774,
      "kube": 4775,
      "Ġuqobo": 4776,
      "Ġumfowabo": 4777,
      "Ġenhle": 4778,
      "Ġngamandla": 4779,
      "gxila": 4780,
      "shicilela": 4781,
      "Advocate": 4782,
      "Ġegameni": 4783,
      "Esi": 4784,
      "IC": 4785,
      "Za": 4786,
      "nela": 4787,
      "shaqekile": 4788,
      "dide": 4789,
      "kwana": 4790,
      "Ġsezulu": 4791,
      "bhalise": 4792,
      "dume": 4793,
      "Ġngim": 4794,
      "Ġnjengomuntu": 4795,
      "Ġomndeni": 4796,
      "Amaphoyisa": 4797,
      "gunyaza": 4798,
      "cacisa": 4799,
      "ĠzaseNingizimu": 4800,
      "bhaliso": 4801,
      "ĠuZikalala": 4802,
      "Ġilanga": 4803,
      "Ġukukhokha": 4804,
      "ĠUbu": 4805,
      "Ġngeledlule": 4806,
      "Ġzingakapheli": 4807,
      "hlombe": 4808,
      "linganiselwa": 4809,
      "Agasti": 4810,
      "Zonke": 4811,
      "ed": 4812,
      "Ġcha": 4813,
      "Ġisib": 4814,
      "ntana": 4815,
      "Ġ11": 4816,
      "Ġakazange": 4817,
      "qondiswe": 4818,
      "sto": 4819,
      "fuba": 4820,
      "Ġsikhundla": 4821,
      "ngempela": 4822,
      "vuka": 4823,
      "Ġuzoba": 4824,
      "gxeka": 4825,
      "Futhi": 4826,
      "ET": 4827,
      "GA": 4828,
      "ulu": 4829,
      "ĠeV": 4830,
      "Ġahlukene": 4831,
      "ser": 4832,
      "sala": 4833,
      "Ġon": 4834,
      "Ġolwen": 4835,
      "Ġkuleso": 4836,
      "bulali": 4837,
      "ĠFu": 4838,
      "Ġbayazi": 4839,
      "dlwengulwa": 4840,
      "Ġkusetshenziswa": 4841,
      "Ġkubonakala": 4842,
      "lutho": 4843,
      "socia": 4844,
      "Ġezibalulekile": 4845,
      "Ġizidakamizwa": 4846,
      "Ġngokuphathelene": 4847,
      "mbano": 4848,
      "zuku": 4849,
      "Ġzazi": 4850,
      "ndleleni": 4851,
      "tshali": 4852,
      "Ġnenkinga": 4853,
      "izi": 4854,
      "nezin": 4855,
      "hlane": 4856,
      "hlekelele": 4857,
      "can": 4858,
      "duka": 4859,
      "Ġzazo": 4860,
      "Ġzezin": 4861,
      "Ġkwendawo": 4862,
      "Ġminyaka": 4863,
      "bhuwari": 4864,
      "dingekile": 4865,
      "Ġnezinkinga": 4866,
      "khwameni": 4867,
      "Ngaphandle": 4868,
      "ncome": 4869,
      "tshonalanga": 4870,
      "Ġawo": 4871,
      "Ġkushiwo": 4872,
      "minye": 4873,
      "busa": 4874,
      "ngelwe": 4875,
      "virus": 4876,
      "Mashu": 4877,
      "Ġakusho": 4878,
      "ntatheli": 4879,
      "Ġwesilisa": 4880,
      "thwele": 4881,
      "Ġebese": 4882,
      "kampanini": 4883,
      "ĠCou": 4884,
      "Ġkuwona": 4885,
      "ordhan": 4886,
      "Ġmo": 4887,
      "Ġithemba": 4888,
      "Ġaphenya": 4889,
      "Ġbathola": 4890,
      "Ġumbono": 4891,
      "ĠloM": 4892,
      "Ġyakwa": 4893,
      "Ġyedwa": 4894,
      "nikelo": 4895,
      "xoxe": 4896,
      "thelevishini": 4897,
      "ĠCommi": 4898,
      "Eastern": 4899,
      "Bhe": 4900,
      "laka": 4901,
      "ĠeKZN": 4902,
      "Ġezibhedlela": 4903,
      "Ġezizimele": 4904,
      "Ġamatha": 4905,
      "Ġesisodwa": 4906,
      "Ġisizwe": 4907,
      "Ġkwezinsiza": 4908,
      "Ġkwesimo": 4909,
      "ĠFM": 4910,
      "shintshe": 4911,
      ".&": 4912,
      "Ġikhanda": 4913,
      "Ġabakwazi": 4914,
      "lwela": 4915,
      "hum": 4916,
      "hovisi": 4917,
      "Ġnezindawo": 4918,
      "Ġt": 4919,
      "busi": 4920,
      "Ġumqondo": 4921,
      "Ġnokusetshenziswa": 4922,
      "ĠNoku": 4923,
      "vimbe": 4924,
      "Phathi": 4925,
      "Ġnobugebengu": 4926,
      "khathazeka": 4927,
      "lahleka": 4928,
      "ngqinamba": 4929,
      "Ġokokuqala": 4930,
      "Ġizimpawu": 4931,
      "Ġimibhalo": 4932,
      "dokodo": 4933,
      "ĠZikalala": 4934,
      "ĠwezokuThutha": 4935,
      "Ġkuphinde": 4936,
      "Ġukunikeza": 4937,
      "sabisa": 4938,
      "zalo": 4939,
      "ĠUmthetho": 4940,
      "tholakele": 4941,
      "Amalungu": 4942,
      "Ġnalowo": 4943,
      "mpeleni": 4944,
      "Ġesifundeni": 4945,
      "bulewe": 4946,
      "Wester": 4947,
      "fela": 4948,
      "Ġengozini": 4949,
      "nage": 4950,
      "khulelwe": 4951,
      "Ġisigwebo": 4952,
      "ĠKhu": 4953,
      "dumo": 4954,
      "ngenziwa": 4955,
      "kwaziswa": 4956,
      "Ġubuye": 4957,
      "chithwa": 4958,
      "alth": 4959,
      "ngcwaba": 4960,
      "ndala": 4961,
      "Ġwaya": 4962,
      "Ġumsindo": 4963,
      "Ġisifo": 4964,
      "Ġlami": 4965,
      "ĠMthembu": 4966,
      "bhano": 4967,
      "rali": 4968,
      "cwadini": 4969,
      "Ġimfu": 4970,
      "Ro": 4971,
      "bongo": 4972,
      "Ġbakithi": 4973,
      "Ġesizayo": 4974,
      "nolwazi": 4975,
      "ngezwa": 4976,
      "Ġwezin": 4977,
      "Ġkokuthola": 4978,
      "Ġmama": 4979,
      "Ġowawu": 4980,
      "Ġzomsebenzi": 4981,
      "Ġngempelasonto": 4982,
      "buyekeza": 4983,
      "Western": 4984,
      "ON": 4985,
      "gri": 4986,
      "Ġefana": 4987,
      "Ġigazi": 4988,
      "ĠUnina": 4989,
      "Ġemzimbeni": 4990,
      "cwalisa": 4991,
      "Ġkwenze": 4992,
      "bhili": 4993,
      "ncil": 4994,
      "Ġnaleyo": 4995,
      "Ġinkunzi": 4996,
      "26": 4997,
      "bli": 4998,
      "keme": 4999,
      "net": 5000,
      "nemi": 5001,
      "bhekisi": 5002,
      "Ġimihlangano": 5003,
      "Ġemcimbini": 5004,
      "god": 5005,
      "lelekile": 5006,
      "Nakuba": 5007,
      "dluliswa": 5008,
      "ĠFi": 5009,
      "Sep": 5010,
      "thathela": 5011,
      "Ġ30": 5012,
      "somatekisi": 5013,
      "xazululo": 5014,
      "lahlwa": 5015,
      "Ġuso": 5016,
      "ĠiPhalamende": 5017,
      "Ġkungekho": 5018,
      "Ġkumelwe": 5019,
      "bert": 5020,
      "Ġofanele": 5021,
      "Ġabathengi": 5022,
      "Ġwale": 5023,
      "Ġsikhungo": 5024,
      "Ġyaso": 5025,
      "Ġyokunga": 5026,
      "ngakaze": 5027,
      "nxeba": 5028,
      "sociation": 5029,
      "Gcwalisa": 5030,
      "Inqubo": 5031,
      "Qa": 5032,
      "nhle": 5033,
      "Ġofuna": 5034,
      "Ġwangi": 5035,
      "thuka": 5036,
      "ĠngoMashi": 5037,
      "Ġsisi": 5038,
      "thamo": 5039,
      "Ġokukhona": 5040,
      "Ġemnyangweni": 5041,
      "Ukusebenzisa": 5042,
      "ĠRi": 5043,
      "xhumane": 5044,
      "vini": 5045,
      "Ġubani": 5046,
      "Ġudokotela": 5047,
      "ence": 5048,
      "Ġukulungisa": 5049,
      "thembiso": 5050,
      "buyise": 5051,
      "zuzu": 5052,
      "Ġisabelo": 5053,
      "renki": 5054,
      "nqoba": 5055,
      "ube": 5056,
      "Ġukubhala": 5057,
      "Ġbakwa": 5058,
      "ĠngoR": 5059,
      "ĠneSolezwe": 5060,
      "qoqo": 5061,
      "vuna": 5062,
      "shengu": 5063,
      "mbuzo": 5064,
      "xuma": 5065,
      "rust": 5066,
      "nze": 5067,
      "Ġikho": 5068,
      "Ġukufa": 5069,
      "Ġbahlale": 5070,
      "Ġngangi": 5071,
      "Ġwagcina": 5072,
      "Ġsiye": 5073,
      "Ġesifanayo": 5074,
      "Ġngokukhulu": 5075,
      "Ġimithi": 5076,
      "gila": 5077,
      "gibela": 5078,
      "Ġemisebenzi": 5079,
      "zenjani": 5080,
      "Riphabhuliki": 5081,
      "70": 5082,
      "Durban": 5083,
      "kubo": 5084,
      "leki": 5085,
      "ĠePha": 5086,
      "qoke": 5087,
      "Ġliyo": 5088,
      "ĠuMveli": 5089,
      "godi": 5090,
      "doba": 5091,
      "ĠnguM": 5092,
      "Ġngumthetho": 5093,
      "Ġkwezingane": 5094,
      "Ġemasontweni": 5095,
      "khathaza": 5096,
      "Grade": 5097,
      "ĠuKa": 5098,
      "lolu": 5099,
      "Ġizithombe": 5100,
      "Ġizinguquko": 5101,
      "shayi": 5102,
      "nobhala": 5103,
      "qophelo": 5104,
      "Ġzimpahla": 5105,
      "melane": 5106,
      "ĠUmndeni": 5107,
      "philayo": 5108,
      "Adv": 5109,
      "SI": 5110,
      "lali": 5111,
      "khambi": 5112,
      "musa": 5113,
      "fiki": 5114,
      "Ġngithi": 5115,
      "Ġekupheleni": 5116,
      "tshenziswa": 5117,
      "Ġkungaka": 5118,
      "ngamanje": 5119,
      "Ġsenze": 5120,
      "lly": 5121,
      "Akukho": 5122,
      "ncwango": 5123,
      "nxa": 5124,
      "rk": 5125,
      "Ġisenzo": 5126,
      "Ġnj": 5127,
      "Ġkanga": 5128,
      "Ġizigameko": 5129,
      "phikweni": 5130,
      "ĠyeTheku": 5131,
      "Ġngiku": 5132,
      "geza": 5133,
      "Ġkwabanye": 5134,
      "ĠSeku": 5135,
      "Sebenzi": 5136,
      "Imali": 5137,
      "bwe": 5138,
      "Ġudlame": 5139,
      "mail": 5140,
      "Ġafike": 5141,
      "Ġbakho": 5142,
      "Ġbavele": 5143,
      "muni": 5144,
      "Ġiziqu": 5145,
      "Ġisifundazwe": 5146,
      "swano": 5147,
      "ĠeNkulu": 5148,
      "Ġngokobu": 5149,
      "kweleta": 5150,
      "Ġubaba": 5151,
      "LA": 5152,
      "manye": 5153,
      "ĠiP": 5154,
      "Ġkuqale": 5155,
      "nes": 5156,
      "Ġkagesi": 5157,
      "Ġwashona": 5158,
      "Ġumyeni": 5159,
      "Ġseyi": 5160,
      "ting": 5161,
      "viki": 5162,
      "Manje": 5163,
      "ĠSithole": 5164,
      "nikezela": 5165,
      "Novemba": 5166,
      "layisense": 5167,
      "Ġngokwesigaba": 5168,
      "Febhuwari": 5169,
      "Ġunomphela": 5170,
      "Ġukugcina": 5171,
      "Ġukutshala": 5172,
      "bikela": 5173,
      "Ġnangen": 5174,
      "Ġisikhala": 5175,
      "Ġbelu": 5176,
      "Ġbeyo": 5177,
      "lelana": 5178,
      "Ġngalezi": 5179,
      "thangamini": 5180,
      "ĠuZongile": 5181,
      "Ġowodwa": 5182,
      "Ġokhethweni": 5183,
      "FP": 5184,
      "ĠtÃĥ": 5185,
      "Ġufike": 5186,
      "Ġesho": 5187,
      "Ġoso": 5188,
      "ĠkaR": 5189,
      "Ġziba": 5190,
      "ĠNkosi": 5191,
      "leleni": 5192,
      "Ġngezinye": 5193,
      "Ġlesicelo": 5194,
      "ĠNgaphandle": 5195,
      "qh": 5196,
      "ĠeGauteng": 5197,
      "Ġakhona": 5198,
      "lishi": 5199,
      "ĠnoNgqongqoshe": 5200,
      "Ġumholi": 5201,
      "Ġzindaba": 5202,
      "qashe": 5203,
      "dubu": 5204,
      "qhuma": 5205,
      "phenye": 5206,
      "nqunywe": 5207,
      "ĠTho": 5208,
      "volo": 5209,
      "vote": 5210,
      "thishanhloko": 5211,
      "mangali": 5212,
      "lokishini": 5213,
      "ĠCentre": 5214,
      "Ne": 5215,
      "dweni": 5216,
      "gxa": 5217,
      "ĠiT": 5218,
      "Ġathathe": 5219,
      "yalo": 5220,
      "Ġohlwini": 5221,
      "Ġezikhundleni": 5222,
      "Ġizilimi": 5223,
      "Ġzikhona": 5224,
      "Ġnezindaba": 5225,
      "Ġekuthuthuki": 5226,
      "ĠsoMthethosisekelo": 5227,
      "ĠZweli": 5228,
      "Ġbendawo": 5229,
      "ĠwamaPhoyisa": 5230,
      "500": 5231,
      "Ġibheyili": 5232,
      "biwe": 5233,
      "Ġezingena": 5234,
      "Ġnakhona": 5235,
      "Ġkwaleli": 5236,
      "ĠKwen": 5237,
      "phakamise": 5238,
      "Ġkwezidingo": 5239,
      "Ġakusi": 5240,
      "Ġyomsebenzi": 5241,
      "ĠyaseM": 5242,
      "Khulu": 5243,
      "payipi": 5244,
      "ĠCouncil": 5245,
      "Ġsuku": 5246,
      "banisa": 5247,
      "Ġingqungquthela": 5248,
      "Ġkumasipala": 5249,
      "quot": 5250,
      "Ġnenkohlakalo": 5251,
      "Ġngezimali": 5252,
      "Ġnasem": 5253,
      "Laba": 5254,
      "khawulo": 5255,
      "ĠButhelezi": 5256,
      "zwakalise": 5257,
      "ĠAssociation": 5258,
      "Ġmuzi": 5259,
      "lay": 5260,
      "lazi": 5261,
      "lithi": 5262,
      "misela": 5263,
      "thembeka": 5264,
      "Ġabagibeli": 5265,
      "Ġisikhulu": 5266,
      "dima": 5267,
      "humu": 5268,
      "ĠAl": 5269,
      "vile": 5270,
      "ĠIcala": 5271,
      "mbezi": 5272,
      "gwaqeni": 5273,
      "Khabhinethi": 5274,
      "Gupta": 5275,
      "Ġendu": 5276,
      "mary": 5277,
      "zeli": 5278,
      "vuno": 5279,
      "Ġmhlawumbe": 5280,
      "ĠUNo": 5281,
      "xhaswa": 5282,
      "Zimba": 5283,
      "hlinzekela": 5284,
      "semandleni": 5285,
      "Ġkangakanani": 5286,
      "Emva": 5287,
      "lalelwa": 5288,
      "Ġungi": 5289,
      "Ġumengameli": 5290,
      "Ġebona": 5291,
      "ĠiS": 5292,
      "Ġukukhula": 5293,
      "Ġukuphathwa": 5294,
      "yizi": 5295,
      "benza": 5296,
      "Ġamanga": 5297,
      "Ġesizi": 5298,
      "hloswe": 5299,
      "mbutho": 5300,
      "Ġebekwe": 5301,
      "ĠeMnyangweni": 5302,
      "SAPS": 5303,
      "gwegwe": 5304,
      "2016": 5305,
      "solakala": 5306,
      "njiswe": 5307,
      "ĠuLt": 5308,
      "KA": 5309,
      "UNgqongqoshe": 5310,
      "Ġesebenza": 5311,
      "sikhungo": 5312,
      "Ġafake": 5313,
      "Ġumbhalo": 5314,
      "ngelwa": 5315,
      "Ġyilungu": 5316,
      "Ġngizi": 5317,
      "reji": 5318,
      "Ġubuchwepheshe": 5319,
      "ĠAfrikha": 5320,
      "njena": 5321,
      "Ngabe": 5322,
      "Phepha": 5323,
      "khubazekile": 5324,
      "msebenzi": 5325,
      "Ġuphiko": 5326,
      "Ġimboni": 5327,
      "phelile": 5328,
      "ĠKha": 5329,
      "Ġubulungiswa": 5330,
      "ĠOkwamanje": 5331,
      "shayele": 5332,
      "vikeleka": 5333,
      "ĠMina": 5334,
      "Ġngokungemthetho": 5335,
      "Septhemba": 5336,
      "Ġiphinde": 5337,
      "Ġkunzima": 5338,
      "Ġesiba": 5339,
      "qaphele": 5340,
      "Nanda": 5341,
      "chazwa": 5342,
      "Ġnemithetho": 5343,
      "Ġwesicelo": 5344,
      "North": 5345,
      "Ġokuyinto": 5346,
      "bonakalayo": 5347,
      "ĠImizamo": 5348,
      "dalulwe": 5349,
      "layini": 5350,
      "Ġiku": 5351,
      "Ġukubheka": 5352,
      "Ġukuthuthukiswa": 5353,
      "Ġofake": 5354,
      "Ġesiningi": 5355,
      "Ġkulezo": 5356,
      "Ġoluzo": 5357,
      "ĠWest": 5358,
      "hlanza": 5359,
      "De": 5360,
      "Ġvele": 5361,
      "Ġusebenza": 5362,
      "Ġkuhlanganisa": 5363,
      "ker": 5364,
      "Ġosebenza": 5365,
      "Ġophethe": 5366,
      "bufakazi": 5367,
      "lwazI": 5368,
      "Ġumfa": 5369,
      "Ġesitolo": 5370,
      "ĠMthethwa": 5371,
      "Ġnezinga": 5372,
      "Ġincazelo": 5373,
      "dlanzana": 5374,
      "Ġlwezempilo": 5375,
      "ĠSesi": 5376,
      "lawulayo": 5377,
      "gcizelele": 5378,
      "bhebhetheka": 5379,
      "Cele": 5380,
      "MEC": 5381,
      "tt": 5382,
      "lebe": 5383,
      "Ġehlala": 5384,
      "Ġbafike": 5385,
      "Ġnodaba": 5386,
      "Ġezinyangeni": 5387,
      "Ġlomuntu": 5388,
      "Ġesiku": 5389,
      "Ġngokuhlanganyela": 5390,
      "ĠEli": 5391,
      "Ngisi": 5392,
      "khwebane": 5393,
      "thangami": 5394,
      "Ġmbiko": 5395,
      "Ġucele": 5396,
      "Ġumuthi": 5397,
      "futha": 5398,
      "Ġkwecala": 5399,
      "ĠkoMthetho": 5400,
      "Ġemhlabathini": 5401,
      "Ġkwamaphoyisa": 5402,
      "Ġezinhlelweni": 5403,
      "dodakazi": 5404,
      "ĠwezokuThuthukiswa": 5405,
      "bhanoyi": 5406,
      "Yonke": 5407,
      "nene": 5408,
      "nhlobo": 5409,
      "Ġkunama": 5410,
      "lungele": 5411,
      "Ġesimeni": 5412,
      "Ġlawa": 5413,
      "Ġyezo": 5414,
      "Ġembo": 5415,
      "Ġelifanele": 5416,
      "ĠPe": 5417,
      "pesheli": 5418,
      "lindelekile": 5419,
      "Ġyinkantolo": 5420,
      "Fakela": 5421,
      "sizwa": 5422,
      "nabantu": 5423,
      "Ġoyisi": 5424,
      "ĠngoMeyi": 5425,
      "Ġnokuphepha": 5426,
      "Ġngiyi": 5427,
      "Ġmndeni": 5428,
      "ĠCi": 5429,
      "Kuzo": 5430,
      "ĠGo": 5431,
      "tions": 5432,
      "tro": 5433,
      "Ġhe": 5434,
      "Ġenta": 5435,
      "Ġukuli": 5436,
      "shweni": 5437,
      "ther": 5438,
      "khangisa": 5439,
      "kingeni": 5440,
      "Ġummeli": 5441,
      "Sizo": 5442,
      "ĠBengi": 5443,
      "bhalisiwe": 5444,
      "ngqungqutheleni": 5445,
      "ĠuCele": 5446,
      "Dkt": 5447,
      "Va": 5448,
      "mnotho": 5449,
      "Ġosa": 5450,
      "Ġodabeni": 5451,
      "Ġezivela": 5452,
      "Ġlendawo": 5453,
      "Ġyokuzi": 5454,
      "lungiswe": 5455,
      "Ġkulokho": 5456,
      "Ġngesinqumo": 5457,
      "khwabanisa": 5458,
      "Busa": 5459,
      "Ġnalezi": 5460,
      "Ġunelungelo": 5461,
      "dokhumende": 5462,
      "bokufika": 5463,
      "ĠiMa": 5464,
      "Ġohlala": 5465,
      "Ġamafomu": 5466,
      "Ġisigungu": 5467,
      "Ġkokwe": 5468,
      "Ġemtholampilo": 5469,
      "fundiswa": 5470,
      "zenhlalakahle": 5471,
      "namanjalo": 5472,
      "guquko": 5473,
      "CC": 5474,
      "Phi": 5475,
      "Uya": 5476,
      "kga": 5477,
      "Ġikhansela": 5478,
      "Ġakwa": 5479,
      "phakela": 5480,
      "Ġbaningi": 5481,
      "Ġumfana": 5482,
      "Ġumcimbi": 5483,
      "Ġyibona": 5484,
      "gubha": 5485,
      "Ġmasipala": 5486,
      "ĠPre": 5487,
      "nakekelwa": 5488,
      "rates": 5489,
      "gijima": 5490,
      "32": 5491,
      "tshiwe": 5492,
      "Ġuko": 5493,
      "Ġukuhlolwa": 5494,
      "Ġkabili": 5495,
      "Ġsithole": 5496,
      "Ġamasevisi": 5497,
      "shangu": 5498,
      "Ġesikhungweni": 5499,
      "Ġngokubulawa": 5500,
      "Ġlena": 5501,
      "khiye": 5502,
      "Ġizinkantolo": 5503,
      "Ġizinsolo": 5504,
      "dlavuza": 5505,
      "Ġ14": 5506,
      "khiqizwa": 5507,
      "zwile": 5508,
      "nyolo": 5509,
      "ĠPhakathi": 5510,
      "ĠĠĠĠĠĠĠĠĠĠĠĠĠĠĠĠ": 5511,
      "Ġabezindaba": 5512,
      "Zimbabwe": 5513,
      "Ġca": 5514,
      "kule": 5515,
      "Ġungum": 5516,
      "Ġitekisi": 5517,
      "Ġkunge": 5518,
      "Ġezitolo": 5519,
      "Ġezimbalwa": 5520,
      "khefu": 5521,
      "Ġelibhekele": 5522,
      "Ġinkohlakalo": 5523,
      "Ġzokudla": 5524,
      "kulungele": 5525,
      "cuza": 5526,
      "Ġyamatekisi": 5527,
      "Ġbuka": 5528,
      "Ngenxa": 5529,
      "phumelelanga": 5530,
      "gandaganda": 5531,
      "Ġumehluko": 5532,
      "laye": 5533,
      "layo": 5534,
      "Ġehle": 5535,
      "Ġepulazini": 5536,
      "Ġima": 5537,
      "Ġikhophi": 5538,
      "Ġimbangela": 5539,
      "Ġabuye": 5540,
      "Ġukulima": 5541,
      "bonge": 5542,
      "ĠngoJanuwari": 5543,
      "Ġsim": 5544,
      "qali": 5545,
      "malini": 5546,
      "Ġmhla": 5547,
      "Ġkwalezi": 5548,
      "didiyele": 5549,
      "Yebo": 5550,
      "Phathimandla": 5551,
      "Mdabu": 5552,
      "les": 5553,
      "ĠeB": 5554,
      "kabi": 5555,
      "nazi": 5556,
      "bomvu": 5557,
      "khathele": 5558,
      "Ġezingekho": 5559,
      "Ġamakhasimende": 5560,
      "Ġlolo": 5561,
      "Ġokungenzeka": 5562,
      "ĠManage": 5563,
      "Ġ16": 5564,
      "belana": 5565,
      "Ġezokuphepha": 5566,
      "ĠUDkt": 5567,
      "Ġekhala": 5568,
      "ĠkuN": 5569,
      "Ġkudala": 5570,
      "ĠneN": 5571,
      "dalwe": 5572,
      "kwakhe": 5573,
      "sundu": 5574,
      "Ġzami": 5575,
      "senkantolo": 5576,
      "Sekela": 5577,
      "ngqikithi": 5578,
      "ĠKhoza": 5579,
      "Mfundo": 5580,
      "ZI": 5581,
      "bra": 5582,
      "bizwe": 5583,
      "Ġisitifiketi": 5584,
      "Ġkwabezindaba": 5585,
      "Ġokubulala": 5586,
      "Ġngokuvumelana": 5587,
      "Ġyemali": 5588,
      "Ġngisa": 5589,
      "Ġngamanzi": 5590,
      "dilika": 5591,
      "Ġeyenziwa": 5592,
      "PO": 5593,
      "pt": 5594,
      "ĠuGu": 5595,
      "Ġungqongqoshe": 5596,
      "bali": 5597,
      "Ġncwadi": 5598,
      "Ġkungcono": 5599,
      "hlaza": 5600,
      "phelelwa": 5601,
      "Ġbem": 5602,
      "Ġyale": 5603,
      "Ġizincomo": 5604,
      "Ukuba": 5605,
      "nqunywa": 5606,
      "ĠMayelana": 5607,
      "Ġangaphandle": 5608,
      "Ġsikahulumeni": 5609,
      "sungule": 5610,
      "Waye": 5611,
      "ĠKhonamanjalo": 5612,
      "Ġisu": 5613,
      "lika": 5614,
      "Ġnezo": 5615,
      "dalula": 5616,
      "ĠkoMthethosisekelo": 5617,
      "shiswe": 5618,
      "zwekazi": 5619,
      "fihla": 5620,
      "Ġnezimo": 5621,
      "mthethosisekelo": 5622,
      "bulale": 5623,
      "tuba": 5624,
      "ngeniswa": 5625,
      "2017": 5626,
      "Ġngezinsolo": 5627,
      "shiyagalolunye": 5628,
      "Jikelele": 5629,
      "Ġukhula": 5630,
      "Ġizenzo": 5631,
      "Ġnhlobo": 5632,
      "ĠngoJuni": 5633,
      "ĠSu": 5634,
      "ngenzi": 5635,
      "Ġyomuntu": 5636,
      "xazu": 5637,
      "ĠCon": 5638,
      "qhawe": 5639,
      "ĠUmnyango": 5640,
      "Ġngokwezi": 5641,
      "hlinzeke": 5642,
      "phikisayo": 5643,
      "shicilelwe": 5644,
      "chibiyelo": 5645,
      "ĠPrimary": 5646,
      "haqwe": 5647,
      "Ġaphansi": 5648,
      "Ġkuqa": 5649,
      "Ġukube": 5650,
      "zazi": 5651,
      "Ġosi": 5652,
      "khondo": 5653,
      "ĠnoMnyango": 5654,
      "Ġsicelo": 5655,
      "phofu": 5656,
      "mbane": 5657,
      "Ġnguyena": 5658,
      "Ġ18": 5659,
      "Ġnabafundi": 5660,
      "Ġwendabuko": 5661,
      "holidi": 5662,
      "Ġusihlalo": 5663,
      "Ġnalolu": 5664,
      "mfuyo": 5665,
      "mfuno": 5666,
      "Ġingqalasizinda": 5667,
      "ctor": 5668,
      "36": 5669,
      "Ġii": 5670,
      "Ġoyo": 5671,
      "Ġngani": 5672,
      "Ġwaqala": 5673,
      "Ġisisebenzi": 5674,
      "ĠyeN": 5675,
      "Ġnjengaba": 5676,
      "bhaka": 5677,
      "hlise": 5678,
      "ĠPi": 5679,
      "Ġnemibandela": 5680,
      "Ġyamanzi": 5681,
      "Ġbasekhaya": 5682,
      "Ġasikho": 5683,
      "hlukaniswa": 5684,
      "Ġusuke": 5685,
      "xwayisa": 5686,
      "ĠwezaseKhaya": 5687,
      "Ġekho": 5688,
      "Ġephakathi": 5689,
      "Ġodokotela": 5690,
      "Ġngaleli": 5691,
      "Ġnengane": 5692,
      "Ġesibucayi": 5693,
      "Ġokusolwa": 5694,
      "ĠAu": 5695,
      "ĠuMkhize": 5696,
      "tshani": 5697,
      "Ġlwemi": 5698,
      "ĠThi": 5699,
      "Ġkungabi": 5700,
      "wayengu": 5701,
      "Ġsenzo": 5702,
      "nb": 5703,
      "Ġes": 5704,
      "Ġenama": 5705,
      "zanga": 5706,
      "zonke": 5707,
      "hlalisa": 5708,
      "Ġkaningi": 5709,
      "ĠnoN": 5710,
      "Ġamakhansela": 5711,
      "phelelwe": 5712,
      "Ġokusebenza": 5713,
      "qotho": 5714,
      "Ġenkundleni": 5715,
      "chithe": 5716,
      "bhekelela": 5717,
      "Ġezenza": 5718,
      "ELW": 5719,
      "menyezelwa": 5720,
      "lakala": 5721,
      "Ġephuma": 5722,
      "Ġelandelayo": 5723,
      "Ġengcupheni": 5724,
      "Ġukuboshwa": 5725,
      "fundwa": 5726,
      "Ġiziphakamiso": 5727,
      "Ġbeze": 5728,
      "ĠNto": 5729,
      "vulela": 5730,
      "tali": 5731,
      "Ġzokuzi": 5732,
      "34": 5733,
      "GE": 5734,
      "igaba": 5735,
      "Ġukushintsha": 5736,
      "netown": 5737,
      "Ġabafana": 5738,
      "fundela": 5739,
      "thuku": 5740,
      "Ġumlimi": 5741,
      "Ġyalesi": 5742,
      "shilo": 5743,
      "hlole": 5744,
      "ring": 5745,
      "Ġnezindleko": 5746,
      "Ġsalo": 5747,
      "xosha": 5748,
      "ĠYama": 5749,
      "buyiswa": 5750,
      "vuselela": 5751,
      "cubungula": 5752,
      "Klebe": 5753,
      "hayi": 5754,
      "Ġkuthathwe": 5755,
      "buze": 5756,
      "Ġngomunye": 5757,
      "Ġneloku": 5758,
      "wonke": 5759,
      "Ġengama": 5760,
      "funeka": 5761,
      "ĠUnion": 5762,
      "klomelo": 5763,
      "zabalazo": 5764,
      "HA": 5765,
      "gca": 5766,
      "Ġendleleni": 5767,
      "Ġikusasa": 5768,
      "seli": 5769,
      "Ġnani": 5770,
      "nolo": 5771,
      "Ġkosuku": 5772,
      "ĠwePhalamende": 5773,
      "Ġngenkani": 5774,
      "Ġlokuhlola": 5775,
      "ĠLolu": 5776,
      "limale": 5777,
      "Ġezempilo": 5778,
      "dedelwa": 5779,
      "linganisa": 5780,
      "nbsp": 5781,
      "CA": 5782,
      "Ta": 5783,
      "rga": 5784,
      "Ġ#": 5785,
      "Ġga": 5786,
      "Ġubona": 5787,
      "Ġasebenza": 5788,
      "Ġkuwe": 5789,
      "hlathi": 5790,
      "Ġabancane": 5791,
      "Ġbakhona": 5792,
      "Ġbafake": 5793,
      "cial": 5794,
      "Ġnezinsiza": 5795,
      "gist": 5796,
      "bhida": 5797,
      "Ġyenze": 5798,
      "Ġokwesikhashana": 5799,
      "ĠePhakeme": 5800,
      "Ġebhekene": 5801,
      "Ġiye": 5802,
      "Ġukukhipha": 5803,
      "Ġabasuke": 5804,
      "futho": 5805,
      "fakiwe": 5806,
      "Ġumqashi": 5807,
      "Ġlokufunda": 5808,
      "Ġinselelo": 5809,
      "hek": 5810,
      "Ġwonyaka": 5811,
      "ĠSipho": 5812,
      "qhaka": 5813,
      "Ġezinhlanu": 5814,
      "ĠwaseN": 5815,
      "gcwala": 5816,
      "ĠNgen": 5817,
      "qeqeshi": 5818,
      "Kanti": 5819,
      "Ġkwezinsuku": 5820,
      "gqugquzele": 5821,
      "Indlela": 5822,
      "it": 5823,
      "Ġme": 5824,
      "Ġake": 5825,
      "Ġkuhle": 5826,
      "beki": 5827,
      "yeka": 5828,
      "khulile": 5829,
      "fushane": 5830,
      "wenya": 5831,
      "shoda": 5832,
      "Ġelithi": 5833,
      "Ġyohlelo": 5834,
      "Ġinhlawulo": 5835,
      "qedwa": 5836,
      "Ġmlisa": 5837,
      "hlile": 5838,
      "ANO": 5839,
      "Ġesasi": 5840,
      "gcwalise": 5841,
      "Ġumhlabathi": 5842,
      "Ġnalezo": 5843,
      "shonela": 5844,
      "ĠOkunye": 5845,
      "singatha": 5846,
      "shanguzo": 5847,
      "47": 5848,
      "TI": 5849,
      "Tho": 5850,
      "lahla": 5851,
      "ĠuLi": 5852,
      "Ġngokwenza": 5853,
      "ĠUphinde": 5854,
      "ĠyeCovid": 5855,
      "Ġkokuqala": 5856,
      "sekelwe": 5857,
      "ngenele": 5858,
      "ĠFa": 5859,
      "bhekise": 5860,
      "gceme": 5861,
      "dluliselwe": 5862,
      "Ncube": 5863,
      "Ġf": 5864,
      "Ġimpendulo": 5865,
      "Ġkuqinisekiswe": 5866,
      "bes": 5867,
      "zansi": 5868,
      "mese": 5869,
      "Ġnaleli": 5870,
      "mbiwa": 5871,
      "ris": 5872,
      "Ġizinkomo": 5873,
      "dlale": 5874,
      "Ġmcimbi": 5875,
      "xolisi": 5876,
      "ntando": 5877,
      "jola": 5878,
      "hn": 5879,
      "Ġifuna": 5880,
      "bhalela": 5881,
      "phupho": 5882,
      "mbula": 5883,
      "Ġekupha": 5884,
      "ĠKuthe": 5885,
      "Ġwokwe": 5886,
      "Zungu": 5887,
      "Ġkwezindawo": 5888,
      "Kubalulekile": 5889,
      "Ġnenqubo": 5890,
      "Ġnesicelo": 5891,
      "dabuka": 5892,
      "ĠBesi": 5893,
      "Ġukwakhiwa": 5894,
      "45": 5895,
      "gcobo": 5896,
      "tshiye": 5897,
      "Ġlwazi": 5898,
      "Ġithenda": 5899,
      "Ġaso": 5900,
      "Ġukuqa": 5901,
      "ĠkaMa": 5902,
      "lwandle": 5903,
      "Ġngokushona": 5904,
      "mpyutha": 5905,
      "phindi": 5906,
      "bhema": 5907,
      "ĠKufanele": 5908,
      "selana": 5909,
      "Ġkusuke": 5910,
      "Ġukwamukela": 5911,
      "Gungu": 5912,
      "Ġugcine": 5913,
      "Ġili": 5914,
      "loba": 5915,
      "Ġkufaka": 5916,
      "ness": 5917,
      "phalamende": 5918,
      "Ġbandla": 5919,
      "Ġesimweni": 5920,
      "mbango": 5921,
      "file": 5922,
      "ĠwoMnyango": 5923,
      "Kungabe": 5924,
      "ndawonye": 5925,
      "Ġkukagesi": 5926,
      "ĠNgemuva": 5927,
      "ĠInkinga": 5928,
      "Khomishini": 5929,
      "ĉĉĉĉĉĉ": 5930,
      "dingida": 5931,
      "ĉĉĉĉĉĉĉĉĉĉĉĉĉĉ": 5932,
      "Ġushintsho": 5933,
      "Ġukuzwa": 5934,
      "sabi": 5935,
      "national": 5936,
      "kelela": 5937,
      "thukile": 5938,
      "khulumi": 5939,
      "nukube": 5940,
      "Ġelisha": 5941,
      "tokisini": 5942,
      "zinikele": 5943,
      "Ġengaphezu": 5944,
      "Ġngezinyawo": 5945,
      "Seku": 5946,
      "Lundi": 5947,
      "Ġzinsolo": 5948,
      "Qu": 5949,
      "ĠeK": 5950,
      "Ġukukhokhela": 5951,
      "Ġukulimala": 5952,
      "Ġezisemthethweni": 5953,
      "Ġnakwi": 5954,
      "thunye": 5955,
      "Ġumyalezo": 5956,
      "sulu": 5957,
      "ĠMandela": 5958,
      "Ġlwethu": 5959,
      "Ġ25": 5960,
      "Ġngokweqile": 5961,
      "thandanga": 5962,
      "nqaba": 5963,
      "shintshwa": 5964,
      "hlukumezeka": 5965,
      "khuphuka": 5966,
      "Ezinye": 5967,
      "Ġekhasini": 5968,
      "loka": 5969,
      "setshen": 5970,
      "sakazi": 5971,
      "Ġesitatimendeni": 5972,
      "Ġkwaso": 5973,
      "dingwa": 5974,
      "ngeze": 5975,
      "Ġlwezin": 5976,
      "qhamuke": 5977,
      "Nongoma": 5978,
      "Ġbene": 5979,
      "nyamalala": 5980,
      "hlanzekile": 5981,
      "sayina": 5982,
      "cabango": 5983,
      "Ġeyoku": 5984,
      "ngqangi": 5985,
      "xumalo": 5986,
      "Ġz": 5987,
      "Ġuza": 5988,
      "banjwa": 5989,
      "Ġimpi": 5990,
      "selele": 5991,
      "Ġabantwana": 5992,
      "nyembezi": 5993,
      "kimu": 5994,
      "Ġumngani": 5995,
      "dalule": 5996,
      "nothweni": 5997,
      "gadi": 5998,
      "hlomulo": 5999,
      "ngenhla": 6000,
      "ĠSimelane": 6001,
      "Kuya": 6002,
      "Ġyenza": 6003,
      "Ġkuzomele": 6004,
      "Ġkwabafundi": 6005,
      "hlinzekwe": 6006,
      "volonti": 6007,
      "US": 6008,
      "ys": 6009,
      "Ġuwu": 6010,
      "Ġefika": 6011,
      "Ġethula": 6012,
      "yiso": 6013,
      "Ġosolwa": 6014,
      "Ġnothisha": 6015,
      "ĠwaKwaZulu": 6016,
      "Ġokuhweba": 6017,
      "phoko": 6018,
      "Ġyathi": 6019,
      "Ġimidlalo": 6020,
      "Ġngezindaba": 6021,
      "hhotela": 6022,
      "Bambisana": 6023,
      "phuthunyiswe": 6024,
      "dlulisele": 6025,
      "Ġizakhamuzi": 6026,
      "33": 6027,
      "UT": 6028,
      "Ya": 6029,
      "ul": 6030,
      "ths": 6031,
      "Ġunesi": 6032,
      "Ġas": 6033,
      "Ġukubulawa": 6034,
      "Ġizingxoxo": 6035,
      "Ġamahora": 6036,
      "Ġngemoto": 6037,
      "Ġngebheyili": 6038,
      "philisa": 6039,
      "Ġlizwe": 6040,
      "Ġzokuhlola": 6041,
      "Ġkwezimoto": 6042,
      "zenzela": 6043,
      "gwetshwa": 6044,
      "vumelwaneni": 6045,
      "hlinzeko": 6046,
      "Ġeyenziwe": 6047,
      "ncintisana": 6048,
      "ĠTown": 6049,
      "BI": 6050,
      "Ulwazi": 6051,
      "Ġengqungqutheleni": 6052,
      "Ġukuhlangana": 6053,
      "Ġophikweni": 6054,
      "buko": 6055,
      "bindi": 6056,
      "Ġngaku": 6057,
      "sebenzisi": 6058,
      "Ġnezikhungo": 6059,
      "Ġinqubomgomo": 6060,
      "Ġzeze": 6061,
      "Sigungu": 6062,
      "Ġuyakwazi": 6063,
      "chitshiye": 6064,
      "gweme": 6065,
      "ĠNgoM": 6066,
      "sungulwe": 6067,
      "Ġefanelekile": 6068,
      "sombululo": 6069,
      "Ġuxhaso": 6070,
      "bazi": 6071,
      "Ġeyen": 6072,
      "Ġiyona": 6073,
      "mitha": 6074,
      "Ġizigaba": 6075,
      "Ġnempilo": 6076,
      "Ġisikhalazo": 6077,
      "Ġkwesa": 6078,
      "Ġlokugcina": 6079,
      "Ġngifuna": 6080,
      "ĠuNa": 6081,
      "Ġkuyinto": 6082,
      "sabalalisa": 6083,
      "gqekeza": 6084,
      "Ġudinga": 6085,
      "ĠeF": 6086,
      "Ġisoka": 6087,
      "haqekile": 6088,
      "Ġosu": 6089,
      "Ġabangaba": 6090,
      "Ġezintweni": 6091,
      "Ġizing": 6092,
      "Ġizikhala": 6093,
      "Ġsiphinde": 6094,
      "Ġngokuhamba": 6095,
      "Ġlalo": 6096,
      "phika": 6097,
      "valela": 6098,
      "phumulo": 6099,
      "ĠKumanje": 6100,
      "chazela": 6101,
      "mpelasonto": 6102,
      "Ġintombi": 6103,
      "Gaze": 6104,
      "Ġembi": 6105,
      "Ġengcono": 6106,
      "Ġimuphi": 6107,
      "Ġirekhodi": 6108,
      "Ġkubhekwe": 6109,
      "Ġkuqhathaniswa": 6110,
      "khandla": 6111,
      "Ġnaka": 6112,
      "ngiwe": 6113,
      "Ġesisha": 6114,
      "nyathi": 6115,
      "Ġokusemandleni": 6116,
      "Ġngokufanele": 6117,
      "njelwe": 6118,
      "Ġkwamalungu": 6119,
      "cwaninga": 6120,
      "qhathanisa": 6121,
      "chool": 6122,
      "IVUM": 6123,
      "Ġembonini": 6124,
      "mqoka": 6125,
      "mafa": 6126,
      "mumo": 6127,
      "ĠUSihlalo": 6128,
      "Ġamahlanu": 6129,
      "jezi": 6130,
      "Ġokuyo": 6131,
      "ĠWi": 6132,
      "shayisana": 6133,
      "ELWANO": 6134,
      "IVUMELWANO": 6135,
      "Uzo": 6136,
      "Ġusebenzisa": 6137,
      "Ġeso": 6138,
      "Ġasho": 6139,
      "liwa": 6140,
      "nelungelo": 6141,
      "Ġbangi": 6142,
      "ĠUZuma": 6143,
      "ĠUmufi": 6144,
      "qulwa": 6145,
      "mbala": 6146,
      "rian": 6147,
      "heha": 6148,
      "Ġemisebenzini": 6149,
      "sena": 6150,
      "Ġnemiphumela": 6151,
      "Ġnezinhlangano": 6152,
      "2014": 6153,
      "Ġkuthiwe": 6154,
      "lindelwe": 6155,
      "kuhle": 6156,
      "lekelele": 6157,
      "hambise": 6158,
      "Ġukusebenzisana": 6159,
      "mic": 6160,
      "phara": 6161,
      "Ġezinje": 6162,
      "Ġumphathi": 6163,
      "Ġumkhakha": 6164,
      "Ġbemi": 6165,
      "shile": 6166,
      "Ġnokuthuthukisa": 6167,
      "ĠMhlongo": 6168,
      "Ġsakwa": 6169,
      "njelwa": 6170,
      "2015": 6171,
      "buyekezwa": 6172,
      "Ezi": 6173,
      "II": 6174,
      "Ungqongqoshe": 6175,
      "Xhuma": 6176,
      "rch": 6177,
      "Ġena": 6178,
      "ĠiH": 6179,
      "Ġiso": 6180,
      "Ġikwazi": 6181,
      "ĠiDA": 6182,
      "Ġalo": 6183,
      "Ġabangani": 6184,
      "Ġzisa": 6185,
      "mbandakanya": 6186,
      "ĠSt": 6187,
      "goli": 6188,
      "dlunkulu": 6189,
      "shushu": 6190,
      "gwetshwe": 6191,
      "phawulwe": 6192,
      "phuthunyiswa": 6193,
      "Ngemuva": 6194,
      "Goli": 6195,
      "xweni": 6196,
      "Ġeyenza": 6197,
      "yithola": 6198,
      "nerali": 6199,
      "Ġabanikazi": 6200,
      "shadweni": 6201,
      "Ġyileli": 6202,
      "mbuzi": 6203,
      "Ġzokuhlala": 6204,
      "Ġzemali": 6205,
      "ran": 6206,
      "ĠBi": 6207,
      "Ġlwezoku": 6208,
      "Ġlwamaphoyisa": 6209,
      "hlanganiswe": 6210,
      "Ġnjll": 6211,
      "Ġeloku": 6212,
      "wela": 6213,
      "Ġukuqala": 6214,
      "ner": 6215,
      "muhle": 6216,
      "Ġngathi": 6217,
      "Ġamasonto": 6218,
      "Ġumzali": 6219,
      "ĠMchunu": 6220,
      "sheke": 6221,
      "Kuthiwa": 6222,
      "SAA": 6223,
      "qondiswa": 6224,
      "ĠNakuba": 6225,
      "Ġukuziphatha": 6226,
      "Ġizakhiwo": 6227,
      "Ġkwezinhlelo": 6228,
      "Ġkunemi": 6229,
      "Ġ2007": 6230,
      "forma": 6231,
      "Ġngokwenzekile": 6232,
      "90": 6233,
      "YL": 6234,
      "hambo": 6235,
      "lukazi": 6236,
      "khushu": 6237,
      "fungo": 6238,
      "Ġizidumbu": 6239,
      "thandwa": 6240,
      "Ġkolwazi": 6241,
      "nsimbi": 6242,
      "Ġzokufunda": 6243,
      "ĠKuyi": 6244,
      "Ġmkhakha": 6245,
      "funayo": 6246,
      "lekayo": 6247,
      "kisicelo": 6248,
      "Ġyezimali": 6249,
      "dingayo": 6250,
      "Ġukungadalulwa": 6251,
      "nternational": 6252,
      "United": 6253,
      "Ġkunen": 6254,
      "ngakwazi": 6255,
      "ngaphansi": 6256,
      "Ġonge": 6257,
      "bolo": 6258,
      "ĠkaN": 6259,
      "Ġbafundi": 6260,
      "Ġezindlini": 6261,
      "Ġsiyazi": 6262,
      "Ġumfundisi": 6263,
      "Ġkwatholakala": 6264,
      "mond": 6265,
      "khethi": 6266,
      "vuliwe": 6267,
      "vama": 6268,
      "cebe": 6269,
      "Ġemkhandlwini": 6270,
      "ĠKukhona": 6271,
      "Ġenhlanganweni": 6272,
      "Ġnamanzi": 6273,
      "Ġngamalungu": 6274,
      "Ġnesigaba": 6275,
      "jabulela": 6276,
      "Ġeyedlule": 6277,
      "ĠEsitatimendeni": 6278,
      "sakazo": 6279,
      "kilasi": 6280,
      "37": 6281,
      "Lwazi": 6282,
      "hlweni": 6283,
      "ps": 6284,
      "Ġiwu": 6285,
      "Ġkuhla": 6286,
      "Ġukubeka": 6287,
      "Ġukutholakala": 6288,
      "khuni": 6289,
      "Ġwacela": 6290,
      "ĠngoJulayi": 6291,
      "Ġokuwu": 6292,
      "Ġbengena": 6293,
      "velile": 6294,
      "Ġsale": 6295,
      "rey": 6296,
      "Ġemanzini": 6297,
      "ĠHlo": 6298,
      "dingeke": 6299,
      "Ġisamba": 6300,
      "Ġezedlule": 6301,
      "ĠInkosi": 6302,
      "Ġyabasebenzi": 6303,
      "Ġkunaba": 6304,
      "ĠUnit": 6305,
      "Ġowenza": 6306,
      "ĠHealth": 6307,
      "qhenya": 6308,
      "mfane": 6309,
      "Ġd": 6310,
      "Ġufake": 6311,
      "Ġinyama": 6312,
      "bikwe": 6313,
      "Ġnolu": 6314,
      "Ġizisebenzi": 6315,
      "Ġamasa": 6316,
      "shadile": 6317,
      "wena": 6318,
      "philisi": 6319,
      "van": 6320,
      "Ġlisa": 6321,
      "Ġimigwaqo": 6322,
      "ĠEku": 6323,
      "posi": 6324,
      "ĠsesiFundazwe": 6325,
      "ĠYingakho": 6326,
      "ngxoxweni": 6327,
      "Ġingxabano": 6328,
      "Ġemoyeni": 6329,
      "vuselelwa": 6330,
      "chibiyela": 6331,
      "efs": 6332,
      "vinini": 6333,
      "Qini": 6334,
      "tte": 6335,
      "twitter": 6336,
      "Ġeqenjini": 6337,
      "Ġukuwa": 6338,
      "Ġbathathe": 6339,
      "ĠngoNovemba": 6340,
      "Ġamafa": 6341,
      "Ġamathuluzi": 6342,
      "Ġumlando": 6343,
      "pheka": 6344,
      "Ġnokuphathwa": 6345,
      "vezwa": 6346,
      "ĠWen": 6347,
      "bhalane": 6348,
      "Ġnezinhlaka": 6349,
      "Ġngabanye": 6350,
      "hlangothini": 6351,
      "ĠePitoli": 6352,
      "volontiya": 6353,
      "Wonke": 6354,
      "Ġuhlala": 6355,
      "Ġeni": 6356,
      "Ġendi": 6357,
      "Ġikomidi": 6358,
      "Ġkutholakala": 6359,
      "Ġukulandela": 6360,
      "yiwa": 6361,
      "Ġabasi": 6362,
      "Ġabaneminyaka": 6363,
      "qalwa": 6364,
      "ĠAbe": 6365,
      "Ġelingu": 6366,
      "Ġsazi": 6367,
      "Ġmahhala": 6368,
      "ĠuNtuli": 6369,
      "ĠEm": 6370,
      "nikele": 6371,
      "ANCYL": 6372,
      "ĠBathe": 6373,
      "Cape": 6374,
      "jabulo": 6375,
      "Ġlwezifundo": 6376,
      "ĠuSenzo": 6377,
      "sendlini": 6378,
      "HI": 6379,
      "pment": 6380,
      "lan": 6381,
      "lalele": 6382,
      "ĠuSha": 6383,
      "maki": 6384,
      "yingxenye": 6385,
      "Ġongena": 6386,
      "khompyutha": 6387,
      "Ġizibhamu": 6388,
      "Ġamatekisi": 6389,
      "Ġokulandelayo": 6390,
      "Ġngokusobala": 6391,
      "Ġsebheyili": 6392,
      "Ġimithombo": 6393,
      "duzo": 6394,
      "Ġemnothweni": 6395,
      "Ġelihle": 6396,
      "Ġnabangani": 6397,
      "Thetho": 6398,
      "phenduke": 6399,
      "ndodana": 6400,
      "linganayo": 6401,
      "yweni": 6402,
      "Ġg": 6403,
      "Ġebho": 6404,
      "Ġenezi": 6405,
      "Ġiqale": 6406,
      "Ġukuhlinzeka": 6407,
      "Ġukukhiqiza": 6408,
      "Ġonogada": 6409,
      "Ġkam": 6410,
      "Ġezilandelayo": 6411,
      "Ġizigebengu": 6412,
      "ĠUzo": 6413,
      "Ġumbuzo": 6414,
      "Ġlomthetho": 6415,
      "Ġesikhwameni": 6416,
      "Ġyalokhu": 6417,
      "Ġngokufa": 6418,
      "Ġnokuthuthukiswa": 6419,
      "cisha": 6420,
      "ĠTrust": 6421,
      "Ġsenza": 6422,
      "Ġngezinhlelo": 6423,
      "bhilidi": 6424,
      "Khi": 6425,
      "Ukwenza": 6426,
      "gela": 6427,
      "ziMali": 6428,
      "bana": 6429,
      "bango": 6430,
      "Ġidokodo": 6431,
      "zakhiwo": 6432,
      "Ġnonina": 6433,
      "kili": 6434,
      "Ġlokwenza": 6435,
      "Ġesibekiwe": 6436,
      "phepheni": 6437,
      "Ġbeya": 6438,
      "Ġkweso": 6439,
      "cace": 6440,
      "Ġyezempilo": 6441,
      "dubule": 6442,
      "Ġsami": 6443,
      "Ġinqwaba": 6444,
      "ĠuNyoka": 6445,
      "Ġolusha": 6446,
      "red": 6447,
      "hlalaphansi": 6448,
      "shuwa": 6449,
      "stri": 6450,
      "ĠNgoko": 6451,
      "phazami": 6452,
      "phoqeleka": 6453,
      "China": 6454,
      "Ġngezansi": 6455,
      "kilasini": 6456,
      "Xhumana": 6457,
      "Do": 6458,
      "Ġekhokhwa": 6459,
      "Ġkuyisi": 6460,
      "Ġkusetshenziswe": 6461,
      "thembi": 6462,
      "Ġizilwane": 6463,
      "Ġizikhundla": 6464,
      "Ġizikweletu": 6465,
      "Ġngozi": 6466,
      "Ġamalungiselelo": 6467,
      "Ġkona": 6468,
      "Ġngokulandisa": 6469,
      "Ġzokwenza": 6470,
      "lulekwa": 6471,
      "ĠKulindeleke": 6472,
      "Ġsona": 6473,
      "hliwe": 6474,
      "Ġezinhle": 6475,
      "poti": 6476,
      "thandayo": 6477,
      "nyuke": 6478,
      "2018": 6479,
      "Ġelali": 6480,
      "bhikisha": 6481,
      "nkana": 6482,
      "Ġenduduzo": 6483,
      "nca": 6484,
      "nzulu": 6485,
      "Ġungena": 6486,
      "Ġegcekeni": 6487,
      "yanda": 6488,
      "Ġokoku": 6489,
      "boleka": 6490,
      "fundeni": 6491,
      "Ġngane": 6492,
      "fakele": 6493,
      "Ġesinzima": 6494,
      "ĠNko": 6495,
      "bhalele": 6496,
      "xox": 6497,
      "Ġizoba": 6498,
      "fakaza": 6499,
      "Ġlomhlaba": 6500,
      "Ġisakhiwo": 6501,
      "Ġwezingane": 6502,
      "Wathi": 6503,
      "Ġnakwezinye": 6504,
      "BS": 6505,
      "inter": 6506,
      "Ġtha": 6507,
      "kukhu": 6508,
      "ngcwe": 6509,
      "Ġnsuku": 6510,
      "Ġukuphu": 6511,
      "Ġukukhathazeka": 6512,
      "Ġoko": 6513,
      "Ġbali": 6514,
      "Ġbami": 6515,
      "khumba": 6516,
      "Ġezisema": 6517,
      "Ġizinombolo": 6518,
      "Ġwafika": 6519,
      "woyela": 6520,
      "Ġesihla": 6521,
      "ntombi": 6522,
      "bhede": 6523,
      "Ġzakwa": 6524,
      "gele": 6525,
      "Ġnamasiko": 6526,
      "Ġubudlelwano": 6527,
      "ĠEkhuluma": 6528,
      "Ġemazingeni": 6529,
      "Ġnentuthuko": 6530,
      "zenhlalo": 6531,
      "Ġuzokwazi": 6532,
      "kolelo": 6533,
      "Ġkweminye": 6534,
      "tekisini": 6535,
      "Ġwomhlaba": 6536,
      "blic": 6537,
      "mfanelo": 6538,
      "BA": 6539,
      "Thi": 6540,
      "sisa": 6541,
      "maphi": 6542,
      "Ġakhokhe": 6543,
      "seku": 6544,
      "seshi": 6545,
      "Ġkufakwe": 6546,
      "Ġukubhalisa": 6547,
      "zakhamuzi": 6548,
      "phanga": 6549,
      "khuhlane": 6550,
      "Ġezihlukene": 6551,
      "Ġwazo": 6552,
      "ĠUS": 6553,
      "ĠUnxuse": 6554,
      "Ġisikweletu": 6555,
      "cation": 6556,
      "ĠAka": 6557,
      "ĠMkhwebane": 6558,
      "ĠChi": 6559,
      "kwenzayo": 6560,
      "Ġkwamacala": 6561,
      "Ġ13": 6562,
      "Ġkulona": 6563,
      "ĠĠĠ": 6564,
      "guquka": 6565,
      "velopment": 6566,
      "Ġwomphakathi": 6567,
      "khumbuzo": 6568,
      "Ġkunezin": 6569,
      "RC": 6570,
      "UMkhandlu": 6571,
      "ast": 6572,
      "tsho": 6573,
      "tshiswa": 6574,
      "Ġaphezulu": 6575,
      "Ġkuthe": 6576,
      "Ġukuxazulula": 6577,
      "Ġona": 6578,
      "Ġonesi": 6579,
      "bukela": 6580,
      "mer": 6581,
      "Ġbalo": 6582,
      "ĠnoMa": 6583,
      "Ġizimpilo": 6584,
      "Ġkwathiwa": 6585,
      "khethwe": 6586,
      "Ġziningi": 6587,
      "mpini": 6588,
      "swana": 6589,
      "ĠuNdunankulu": 6590,
      "Ġolufanele": 6591,
      "sekelwa": 6592,
      "ĠAbasolwa": 6593,
      "phawule": 6594,
      "Yenza": 6595,
      "Ġuthola": 6596,
      "Ġungene": 6597,
      "Ġudadewabo": 6598,
      "Ġejwayelekile": 6599,
      "Ġikhono": 6600,
      "ĠiSilo": 6601,
      "Ġowu": 6602,
      "Ġezindabeni": 6603,
      "thuna": 6604,
      "hlenga": 6605,
      "qubuka": 6606,
      "ĠNama": 6607,
      "vikelwe": 6608,
      "Ġyokugcina": 6609,
      "leleke": 6610,
      "Ngen": 6611,
      "Imininingwane": 6612,
      "ĠAmalungu": 6613,
      "ĠuZwane": 6614,
      "ngolose": 6615,
      "Okhulumela": 6616,
      "SF": 6617,
      "usa": 6618,
      "Ġunxuse": 6619,
      "zili": 6620,
      "sima": 6621,
      "hlakeni": 6622,
      "Ġnowa": 6623,
      "kolishi": 6624,
      "Ġnakwa": 6625,
      "Ġummbila": 6626,
      "Ġokungaba": 6627,
      "qashiwe": 6628,
      "quthu": 6629,
      "hole": 6630,
      "ĠuMnu": 6631,
      "Ġyokuphatha": 6632,
      "Ġkokusebenza": 6633,
      "Ġkwenkantolo": 6634,
      "Ġabesilisa": 6635,
      "Ġkubasebenzi": 6636,
      "balala": 6637,
      "ĠwezokuBusa": 6638,
      "Ġehlathini": 6639,
      "humla": 6640,
      "UMa": 6641,
      "Ġuyena": 6642,
      "Ġushone": 6643,
      "lengwa": 6644,
      "balula": 6645,
      "Ġiphutha": 6646,
      "lisiwe": 6647,
      "Ġkuchazwe": 6648,
      "Ġukufika": 6649,
      "nethemba": 6650,
      "Ġabangama": 6651,
      "Ġezithintekayo": 6652,
      "Ġumkhiqizo": 6653,
      "Ġnokusebenzisa": 6654,
      "que": 6655,
      "kwethula": 6656,
      "Ġyokuziphatha": 6657,
      "bonakale": 6658,
      "Ġmhlaba": 6659,
      "nqunyiwe": 6660,
      "Ġkubekwe": 6661,
      "ĠeMkhandlwini": 6662,
      "ters": 6663,
      "ĠWezi": 6664,
      "Ġkwenzekani": 6665,
      "shicilelwa": 6666,
      "dingidwa": 6667,
      "Ġayisithupha": 6668,
      "ĠUNobhala": 6669,
      "layezo": 6670,
      "RA": 6671,
      "ĠuSa": 6672,
      "Ġeme": 6673,
      "Ġephu": 6674,
      "ĠiNational": 6675,
      "Ġange": 6676,
      "Ġahlale": 6677,
      "line": 6678,
      "Ġukuhlanganisa": 6679,
      "ngabi": 6680,
      "Ġneye": 6681,
      "Ġamakhosi": 6682,
      "Ġumphumela": 6683,
      "Ġsem": 6684,
      "mpula": 6685,
      "ĠIkhansela": 6686,
      "Ġsokusebenza": 6687,
      "ĠwoMphakathi": 6688,
      "dlulile": 6689,
      "wesinye": 6690,
      "ĠPoli": 6691,
      "ngelona": 6692,
      "xhumanisa": 6693,
      "ĠseziPhathimandla": 6694,
      "Ġwezempilo": 6695,
      "Ġkimi": 6696,
      "ĠuTha": 6697,
      "cubungu": 6698,
      "ten": 6699,
      "ngcindezi": 6700,
      "matasa": 6701,
      "Ġimpumelelo": 6702,
      "Ġathile": 6703,
      "Ġasebenzise": 6704,
      "Ġkukhombisa": 6705,
      "phambene": 6706,
      "bonwa": 6707,
      "medi": 6708,
      "ĠwaKwa": 6709,
      "Ġkwemvume": 6710,
      "Ġziye": 6711,
      "ĠSchool": 6712,
      "ĠSIVUMELWANO": 6713,
      "Ġkwimi": 6714,
      "ĠkukaR": 6715,
      "Ġkwesigatshana": 6716,
      "Ġakade": 6717,
      "Ġsesibili": 6718,
      "Ġsesithathu": 6719,
      "Ġnjengengxenye": 6720,
      "Ġbudedengu": 6721,
      "Ġnaleso": 6722,
      "Ġkunabantu": 6723,
      "Ġlukazwelonke": 6724,
      "Qaphela": 6725,
      "lla": 6726,
      "Ġpro": 6727,
      "ĠuButhelezi": 6728,
      "zimisele": 6729,
      "Ġebhange": 6730,
      "Ġndoda": 6731,
      "Ġukukhombisa": 6732,
      "phasa": 6733,
      "phathwe": 6734,
      "Ġnophenyo": 6735,
      "qabane": 6736,
      "cience": 6737,
      "khiweni": 6738,
      "Ġelithile": 6739,
      "mbule": 6740,
      "ngeniso": 6741,
      "Ġyezinto": 6742,
      "xhasi": 6743,
      "ĠJikelele": 6744,
      "Ġsikazwelonke": 6745,
      "nqanyu": 6746,
      "Ġzasemakhaya": 6747,
      "Ġyilowo": 6748,
      "zobuchwepheshe": 6749,
      "hloniphekile": 6750,
      "Ġpa": 6751,
      "kudala": 6752,
      "Ġuhambe": 6753,
      "Ġukuphuma": 6754,
      "Ġocele": 6755,
      "Ġnodlame": 6756,
      "Ġisikhwama": 6757,
      "Ġokuyisi": 6758,
      "ĠngokuBambisana": 6759,
      "qaphela": 6760,
      "ĠMxolisi": 6761,
      "Ġzokuba": 6762,
      "Ġemine": 6763,
      "Ġemigwaqweni": 6764,
      "nikezelwa": 6765,
      "bhodlela": 6766,
      "thengiswa": 6767,
      "khwanazi": 6768,
      "Khongolose": 6769,
      "ĠNgenxa": 6770,
      "Imisebenzi": 6771,
      "illay": 6772,
      "ĠVu": 6773,
      "fanekiso": 6774,
      "ĠuNobhala": 6775,
      "www": 6776,
      "nx": 6777,
      "tso": 6778,
      "lawa": 6779,
      "Ġufisa": 6780,
      "ntwe": 6781,
      "Ġbaqale": 6782,
      "Ġbagcine": 6783,
      "ĠUSi": 6784,
      "Ġamasiko": 6785,
      "Ġummangalelwa": 6786,
      "Ġesithangamini": 6787,
      "Ġisinyathelo": 6788,
      "Ġokulindeleke": 6789,
      "mbiza": 6790,
      "Ġngokuya": 6791,
      "Ġimiyalelo": 6792,
      "ĠIlungu": 6793,
      "ĠManje": 6794,
      "Ġnomhlangano": 6795,
      "tulo": 6796,
      "yensi": 6797,
      "bhizinisini": 6798,
      "ĠFo": 6799,
      "Ġwayese": 6800,
      "Sassa": 6801,
      "ĠInkantolo": 6802,
      "dweba": 6803,
      "sayense": 6804,
      "klamo": 6805,
      "lokazane": 6806,
      "38": 6807,
      "Awu": 6808,
      "Bonke": 6809,
      "Hlelo": 6810,
      "WE": 6811,
      "mene": 6812,
      "Ġunkosikazi": 6813,
      "Ġedingekayo": 6814,
      "enenja": 6815,
      "ĠiSouth": 6816,
      "ning": 6817,
      "Ġukungi": 6818,
      "Ġukuveza": 6819,
      "bese": 6820,
      "Ġbawa": 6821,
      "Ġbasebenzise": 6822,
      "Ġyisa": 6823,
      "Ġngokubulala": 6824,
      "Ġwezama": 6825,
      "Ġyemoto": 6826,
      "pasi": 6827,
      "Sicela": 6828,
      "res": 6829,
      "Ġangaba": 6830,
      "ĠNai": 6831,
      "Ġngaleyo": 6832,
      "Ġzinsuku": 6833,
      "Ġzabasebenzi": 6834,
      "xwayise": 6835,
      "West": 6836,
      "thungatha": 6837,
      "cco": 6838,
      "feni": 6839,
      "lack": 6840,
      "Ġuqala": 6841,
      "lotshwa": 6842,
      "Ġukusuka": 6843,
      "Ġocansi": 6844,
      "Ġnokho": 6845,
      "Ġizimpendulo": 6846,
      "ngumuntu": 6847,
      "hleliwe": 6848,
      "ĠkweN": 6849,
      "Ġyile": 6850,
      "ĠweSolezwe": 6851,
      "ĠAwu": 6852,
      "Ġemgwaqeni": 6853,
      "Ġinyu": 6854,
      "qedile": 6855,
      "Ġmkhankaso": 6856,
      "Ġkwezimo": 6857,
      "Ġkwamakhono": 6858,
      "ĠwaseThekwini": 6859,
      "ĠeMo": 6860,
      "Ġsenzeke": 6861,
      "ĠAbasebenzi": 6862,
      "Kwaku": 6863,
      "ĠzikaHulumeni": 6864,
      "nyile": 6865,
      "Ġsomsebenzi": 6866,
      "ĠNjengamanje": 6867,
      "thuthukise": 6868,
      "ĠRoad": 6869,
      "ĠZandile": 6870,
      "Sheduli": 6871,
      "SFAS": 6872,
      "!\"": 6873,
      "Ngu": 6874,
      "UMthetho": 6875,
      "cker": 6876,
      "email": 6877,
      "ombolo": 6878,
      "enyeni": 6879,
      "Ġkudinga": 6880,
      "Ġkha": 6881,
      "ber": 6882,
      "belwe": 6883,
      "boweni": 6884,
      "khulelwa": 6885,
      "sondela": 6886,
      "ĠUhlelo": 6887,
      "Ġsise": 6888,
      "Ġumbuso": 6889,
      "ngulwa": 6890,
      "qopha": 6891,
      "cabha": 6892,
      "Ġyilesi": 6893,
      "Ġyiwona": 6894,
      "hlon": 6895,
      "sule": 6896,
      "ĠAngazi": 6897,
      "hluke": 6898,
      "Ġzokuqala": 6899,
      "ĠuNkulunkulu": 6900,
      "Ġsomuntu": 6901,
      "cutshu": 6902,
      "tshekga": 6903,
      "Ġyisigaba": 6904,
      "ĠColonel": 6905,
      "ukuza": 6906,
      "sonkontileka": 6907,
      "Zondo": 6908,
      "ntshont": 6909,
      "phefumulo": 6910,
      "ndakanyeka": 6911,
      "LO": 6912,
      "UNkk": 6913,
      "Ġangena": 6914,
      "ĠngoSepthemba": 6915,
      "dium": 6916,
      "ngezi": 6917,
      "Ġyibo": 6918,
      "Ġlokuthola": 6919,
      "Ġolulodwa": 6920,
      "ĠBank": 6921,
      "ĠNational": 6922,
      "bophezele": 6923,
      "sayine": 6924,
      "hlongozwe": 6925,
      "gcinimafa": 6926,
      "Ġolwengeziwe": 6927,
      "ĠYobu": 6928,
      "Ġintengo": 6929,
      "'s": 6930,
      "Nhloko": 6931,
      "nsa": 6932,
      "Ġpi": 6933,
      "Ġuthathe": 6934,
      "Ġekwe": 6935,
      "Ġebhaliwe": 6936,
      "Ġithole": 6937,
      "Ġisonto": 6938,
      "Ġibandla": 6939,
      "Ġkubeka": 6940,
      "Ġkufika": 6941,
      "Ġukukhishwa": 6942,
      "ngaku": 6943,
      "Ġbabuye": 6944,
      "fule": 6945,
      "faki": 6946,
      "Ġkwegciwane": 6947,
      "ĠweSi": 6948,
      "Ġsemi": 6949,
      "Natali": 6950,
      "Ġwenkantolo": 6951,
      "2019": 6952,
      "Ġyomnyango": 6953,
      "ĠuMalema": 6954,
      "Ngaphambi": 6955,
      "Ġzezimali": 6956,
      "Ġnobuchwepheshe": 6957,
      "Ġ500": 6958,
      "ĠuCol": 6959,
      "sakaza": 6960,
      "Ġekuthuthukiseni": 6961,
      "as": 6962,
      "Ġekhi": 6963,
      "Ġecela": 6964,
      "ĠiG": 6965,
      "Ġibhu": 6966,
      "Ġkuku": 6967,
      "yine": 6968,
      "Ġabathi": 6969,
      "Ġesinge": 6970,
      "qamba": 6971,
      "Ġemfuleni": 6972,
      "ĠneziN": 6973,
      "godini": 6974,
      "nziwe": 6975,
      "ĠSicela": 6976,
      "Ġakuyona": 6977,
      "Ġnabaholi": 6978,
      "Ġwesigungu": 6979,
      "Ġ21": 6980,
      "Ġimvelo": 6981,
      "Ġngokwanele": 6982,
      "mpopo": 6983,
      "qinisekisiwe": 6984,
      "UMnyango": 6985,
      "em": 6986,
      "Ġsu": 6987,
      "Ġuwa": 6988,
      "Ġuvumile": 6989,
      "bambi": 6990,
      "Ġephenya": 6991,
      "Ġafuna": 6992,
      "Ġagcine": 6993,
      "Ġasazi": 6994,
      "liyoni": 6995,
      "Ġkubhekwa": 6996,
      "Ġkuvezwe": 6997,
      "Ġukuhlela": 6998,
      "Ġukufeza": 6999,
      "hlandla": 7000,
      "ĠngoFebhuwari": 7001,
      "Ġumshini": 7002,
      "Ġngokucacile": 7003,
      "phiwe": 7004,
      "Ġyokuhlola": 7005,
      "ĠKule": 7006,
      "xaka": 7007,
      "Ġlusa": 7008,
      "Ġmfundi": 7009,
      "Ġnguku": 7010,
      "Ġnguhulumeni": 7011,
      "Ġ2000": 7012,
      "lisekile": 7013,
      "Ġkwalowo": 7014,
      "nomthelela": 7015,
      "hlonipho": 7016,
      "African": 7017,
      "Ġbesilisa": 7018,
      "niswano": 7019,
      "phatheke": 7020,
      "Ġindiza": 7021,
      "khemikhali": 7022,
      "Bi": 7023,
      "dy": 7024,
      "ĠiPhini": 7025,
      "Ġkuza": 7026,
      "Ġkude": 7027,
      "yamu": 7028,
      "Ġlali": 7029,
      "ĠNgu": 7030,
      "tengo": 7031,
      "cophelela": 7032,
      "redi": 7033,
      "Ġubudlelwane": 7034,
      "ĠEmuva": 7035,
      "bhishi": 7036,
      "ĠGro": 7037,
      "ĠGeneral": 7038,
      "Ġsekuphele": 7039,
      "ĠLea": 7040,
      "enant": 7041,
      "ĠAkukho": 7042,
      "chunge": 7043,
      "cebeleka": 7044,
      "qho": 7045,
      "Ġavu": 7046,
      "thisi": 7047,
      "Ġkusebenza": 7048,
      "Ġabanama": 7049,
      "Ġabaqashi": 7050,
      "Ġbasebenzisa": 7051,
      "mule": 7052,
      "Ġizingubo": 7053,
      "Ġngolimi": 7054,
      "wula": 7055,
      "Ġnokudla": 7056,
      "Ġnokuphatha": 7057,
      "Ġliyi": 7058,
      "phumile": 7059,
      "ndeli": 7060,
      "ĠyoMnyango": 7061,
      "ndlebe": 7062,
      "rato": 7063,
      "ĠKusolwa": 7064,
      "qina": 7065,
      "Ġkomgwaqo": 7066,
      "Ġayiphumelelanga": 7067,
      "Ġyamaphoyisa": 7068,
      "Ngaphezu": 7069,
      "Ġingabe": 7070,
      "julile": 7071,
      "Ġingcindezi": 7072,
      "Ġngesandla": 7073,
      "busiso": 7074,
      "48": 7075,
      "Fi": 7076,
      "GO": 7077,
      "Qo": 7078,
      "gwini": 7079,
      "Ġuvu": 7080,
      "Ġino": 7081,
      "Ġibha": 7082,
      "seko": 7083,
      "Ġukuthula": 7084,
      "buli": 7085,
      "Ġizivakashi": 7086,
      "ndane": 7087,
      "thuthwa": 7088,
      "Ġsiwu": 7089,
      "Ġesivumelwaneni": 7090,
      "shise": 7091,
      "hlulekile": 7092,
      "mbuza": 7093,
      "melana": 7094,
      "dlalwa": 7095,
      "Ġlungu": 7096,
      "Ġnento": 7097,
      "Izicelo": 7098,
      "Ġkwesicelo": 7099,
      "Ġnasemi": 7100,
      "Ġyesifundazwe": 7101,
      "bhokisi": 7102,
      "shayelwa": 7103,
      "Ġngomlomo": 7104,
      "Ġezingaphansi": 7105,
      "Ġebizwa": 7106,
      "cindezela": 7107,
      "ĠZondo": 7108,
      "ĠuMongameli": 7109,
      "yilethi": 7110,
      "EM": 7111,
      "Yini": 7112,
      "Ġuthando": 7113,
      "Ġikhefu": 7114,
      "Ġavule": 7115,
      "nana": 7116,
      "keli": 7117,
      "hlava": 7118,
      "Ġabambe": 7119,
      "Ġsibhedlela": 7120,
      "Ġesithi": 7121,
      "ĠesiShayamthetho": 7122,
      "qola": 7123,
      "Ġzikwazi": 7124,
      "ĠImali": 7125,
      "ĠyoM": 7126,
      "Ġinqobo": 7127,
      "Ġlweze": 7128,
      "vumelwane": 7129,
      "Ġazikho": 7130,
      "Ġukungabi": 7131,
      "ĠsaseNingizimu": 7132,
      "ille": 7133,
      "ĠKazwelonke": 7134,
      "2009": 7135,
      "hlongozwayo": 7136,
      "gram": 7137,
      "hoxiswa": 7138,
      "ĠCommuni": 7139,
      "Ġebhalwe": 7140,
      "kandla": 7141,
      "Ġukukho": 7142,
      "milo": 7143,
      "khonto": 7144,
      "Ġbangene": 7145,
      "fakelwa": 7146,
      "Ġesithunyelwe": 7147,
      "Ġngelinye": 7148,
      "Ġokusa": 7149,
      "Ġkwengane": 7150,
      "khethela": 7151,
      "Ġyicala": 7152,
      "Ġwemi": 7153,
      "Ġliba": 7154,
      "Ġkushone": 7155,
      "Ġzokuphatha": 7156,
      "Ġmdlalo": 7157,
      "Ġmkhuba": 7158,
      "fundise": 7159,
      "phenywe": 7160,
      "xoxwa": 7161,
      "Zululand": 7162,
      "shushisa": 7163,
      "ĠNgokwe": 7164,
      "Ġzentuthuko": 7165,
      "cabangela": 7166,
      "Ġkwisigaba": 7167,
      "Ġnjengokusho": 7168,
      "Dukuza": 7169,
      "Izolo": 7170,
      "imane": 7171,
      "zindlu": 7172,
      "Ġesebenzisa": 7173,
      "Ġenesi": 7174,
      "Ġendala": 7175,
      "linya": 7176,
      "nise": 7177,
      "Ġeziphezulu": 7178,
      "Ġkodaba": 7179,
      "ĠAkekho": 7180,
      "Ġzamaphoyisa": 7181,
      "Ġlokuzi": 7182,
      "Ġinkokhelo": 7183,
      "Ġzemisebenzi": 7184,
      "Ġemisha": 7185,
      "ĠEbuzwa": 7186,
      "Ġ24": 7187,
      "Ġkwesidumbu": 7188,
      "Ġuyaku": 7189,
      "ĠZe": 7190,
      "ĠlikaMengameli": 7191,
      "nqamula": 7192,
      "qeqesho": 7193,
      "ncoma": 7194,
      "hlaziyi": 7195,
      "hoxisa": 7196,
      "kusa": 7197,
      "lekela": 7198,
      "Ġimeya": 7199,
      "Ġnjani": 7200,
      "Ġasebenze": 7201,
      "Ġkusolwa": 7202,
      "lulwe": 7203,
      "naso": 7204,
      "Ġkanjena": 7205,
      "ĠUdaba": 7206,
      "khethiwe": 7207,
      "Ġnokuthola": 7208,
      "hlomo": 7209,
      "ĠSenzo": 7210,
      "ndepen": 7211,
      "Ġekulweni": 7212,
      "ranti": 7213,
      "Ġencwadini": 7214,
      "Ġsohlelo": 7215,
      "qiwe": 7216,
      "Ġesedlule": 7217,
      "Umasipala": 7218,
      "Ġukwehla": 7219,
      "ard": 7220,
      "Ġezinganeni": 7221,
      "Buhleni": 7222,
      "sheshayo": 7223,
      "Ġokwenzekile": 7224,
      "njiniyela": 7225,
      "ngcweti": 7226,
      "Abe": 7227,
      "CP": 7228,
      "cwi": 7229,
      "Ġumemezele": 7230,
      "Ġehluleka": 7231,
      "ĠeKapa": 7232,
      "katho": 7233,
      "sezi": 7234,
      "misile": 7235,
      "thoyilethi": 7236,
      "Ġezidingekayo": 7237,
      "Ġizimboni": 7238,
      "Ġizimbewu": 7239,
      "ĠUya": 7240,
      "ĠUhulumeni": 7241,
      "Ġnempahla": 7242,
      "Ġamasosha": 7243,
      "dayisi": 7244,
      "cike": 7245,
      "Ġyenziwe": 7246,
      "ĠAsazi": 7247,
      "phulwa": 7248,
      "Ġeliyi": 7249,
      "ĠWor": 7250,
      "ĠYoku": 7251,
      "Ġethinta": 7252,
      "Imithetho": 7253,
      "qwashisa": 7254,
      "cacise": 7255,
      "nakekelo": 7256,
      "Thuthukiswa": 7257,
      "dwebo": 7258,
      "ĠiNkantolo": 7259,
      "ĠDevelopment": 7260,
      "Ġizifonyo": 7261,
      "tshisekelo": 7262,
      "ize": 7263,
      "Ġfa": 7264,
      "Ġevu": 7265,
      "Ġiwa": 7266,
      "thikithi": 7267,
      "Ġkuvalwe": 7268,
      "nds": 7269,
      "nambi": 7270,
      "Ġabanezi": 7271,
      "koti": 7272,
      "Ġngazi": 7273,
      "ĠUnga": 7274,
      "damu": 7275,
      "Ġyikhona": 7276,
      "khululekile": 7277,
      "Ġzangasese": 7278,
      "ĠKuvele": 7279,
      "Maz": 7280,
      "Ġemakethe": 7281,
      "Ġkwamalungelo": 7282,
      "ĠKwazi": 7283,
      "ĠKwaba": 7284,
      "ĠUmphakathi": 7285,
      "thweswe": 7286,
      "Isimo": 7287,
      "Ġbekukhona": 7288,
      "ĠSengi": 7289,
      "memeza": 7290,
      "qinisekiso": 7291,
      "UMo": 7292,
      "chnolo": 7293,
      "khumbule": 7294,
      "ncintiswano": 7295,
      "thembekile": 7296,
      "shuwalense": 7297,
      "ndependent": 7298,
      "%,": 7299,
      "Ġumu": 7300,
      "Ġidi": 7301,
      "Ġathinta": 7302,
      "Ġukuma": 7303,
      "Ġukuhambisana": 7304,
      "phakelwa": 7305,
      "Ġabathile": 7306,
      "Ġabahola": 7307,
      "Ġezinge": 7308,
      "Ġezifanayo": 7309,
      "Ġizingozi": 7310,
      "ngise": 7311,
      "ĠyiCovid": 7312,
      "Ġyiyiphi": 7313,
      "Ġyimaphi": 7314,
      "Ġleze": 7315,
      "ndiswa": 7316,
      "phuzo": 7317,
      "Ġyokuhlela": 7318,
      "zuma": 7319,
      "cwasa": 7320,
      "paki": 7321,
      "Ġkwezikole": 7322,
      "Ġnenani": 7323,
      "ĠwesiFundazwe": 7324,
      "Ġwentela": 7325,
      "Cosa": 7326,
      "Ġnasesi": 7327,
      "stle": 7328,
      "Ġngesihluku": 7329,
      "Ġyomhlaba": 7330,
      "Ġbasema": 7331,
      "Ġeyishumi": 7332,
      "Izinhlelo": 7333,
      "ngcwabeni": 7334,
      "Ġindiva": 7335,
      "Ġezenzeka": 7336,
      "didekile": 7337,
      "ĠuKaunda": 7338,
      "Ġnangendlela": 7339,
      "Go": 7340,
      "Igama": 7341,
      "Nkosi": 7342,
      "fini": 7343,
      "Ġugwayi": 7344,
      "Ġephethe": 7345,
      "Ġehostela": 7346,
      "ĠiC": 7347,
      "Ġilunga": 7348,
      "ham": 7349,
      "Ġakhulume": 7350,
      "Ġkuningi": 7351,
      "Ġukuwu": 7352,
      "yisela": 7353,
      "theshwana": 7354,
      "buchwepheshe": 7355,
      "Ġababambe": 7356,
      "khonjwe": 7357,
      "Ġezibhekene": 7358,
      "Ġizintambo": 7359,
      "ĠUZikalala": 7360,
      "Ġamathenda": 7361,
      "dayise": 7362,
      "Ġkwakhiwe": 7363,
      "Ġzingane": 7364,
      "Ġyidlanzana": 7365,
      "Ġnokubhala": 7366,
      "hlolisi": 7367,
      "dedela": 7368,
      "rigadi": 7369,
      "ĠsaKwaZulu": 7370,
      "Ġlokudlwengula": 7371,
      "randi": 7372,
      "Ġkulelo": 7373,
      "Ġlube": 7374,
      "Ġsokwenza": 7375,
      "Ġnamakhono": 7376,
      "ĠEzinye": 7377,
      "Ġkwin": 7378,
      "Kuyi": 7379,
      "ntein": 7380,
      "ĠHou": 7381,
      "Ġbekumele": 7382,
      "Abasebenzi": 7383,
      "xazululwa": 7384,
      "Ġkwisigatshana": 7385,
      "lands": 7386,
      "vocavoca": 7387,
      "ĠZondi": 7388,
      "Randi": 7389,
      "Pro": 7390,
      "Wor": 7391,
      "ongo": 7392,
      "Ġvideo": 7393,
      "Ġephelele": 7394,
      "Ġaqhubeke": 7395,
      "Ġkuqhubeka": 7396,
      "Ġkubuza": 7397,
      "Ġukuvu": 7398,
      "Ġukuzama": 7399,
      "yiwe": 7400,
      "hlaselwe": 7401,
      "Ġababhekene": 7402,
      "khahla": 7403,
      "Ġnokwenziwa": 7404,
      "Ġezihambisana": 7405,
      "Ġneya": 7406,
      "thamela": 7407,
      "Ġesikhishwe": 7408,
      "Ġisiphakamiso": 7409,
      "kwandisa": 7410,
      "Ġnomasipala": 7411,
      "Ġngokusho": 7412,
      "Ġweqembu": 7413,
      "Ġsempilo": 7414,
      "ĠNgqongqoshe": 7415,
      "bhalweni": 7416,
      "Ġmfana": 7417,
      "menzi": 7418,
      "menza": 7419,
      "Kunga": 7420,
      "Ġnomphumela": 7421,
      "Ġ17": 7422,
      "Ġyendabuko": 7423,
      "Ġwesithathu": 7424,
      "Com": 7425,
      "shwele": 7426,
      "ulam": 7427,
      "Ġimvula": 7428,
      "thathelwa": 7429,
      "erulam": 7430,
      "ĠIzingane": 7431,
      "juqu": 7432,
      "Ġngemisebenzi": 7433,
      "Yize": 7434,
      "hlwempu": 7435,
      "catshangwa": 7436,
      "humusha": 7437,
      "ISA": 7438,
      "ĠeC": 7439,
      "Ġelu": 7440,
      "Ġitha": 7441,
      "Ġkuqhuba": 7442,
      "Ġukudalulwa": 7443,
      "yiswa": 7444,
      "Ġokhona": 7445,
      "Ġolandelayo": 7446,
      "Ġozimele": 7447,
      "Ġwasho": 7448,
      "Ġngosizo": 7449,
      "Ġyabe": 7450,
      "Ġngokum": 7451,
      "ship": 7452,
      "vunye": 7453,
      "bhele": 7454,
      "Ġkokudla": 7455,
      "kulungwane": 7456,
      "ĠMabhida": 7457,
      "Ġyesikhashana": 7458,
      "ĠYa": 7459,
      "Ġkuyoba": 7460,
      "Ġlamalungu": 7461,
      "ĠKaunda": 7462,
      "njiwe": 7463,
      "donse": 7464,
      "Ġyimiphi": 7465,
      "ntshontsha": 7466,
      "rigadier": 7467,
      "73": 7468,
      "Isikhathi": 7469,
      "Inani": 7470,
      "ice": 7471,
      "lama": 7472,
      "Ġukhona": 7473,
      "batha": 7474,
      "hawu": 7475,
      "hambile": 7476,
      "Ġkuyenzeka": 7477,
      "Ġukuvula": 7478,
      "Ġabazange": 7479,
      "Ġbasuke": 7480,
      "Ġezifundazweni": 7481,
      "Ġwaphinde": 7482,
      "Ġesingekho": 7483,
      "Ġnokufundisa": 7484,
      "Ġemshadweni": 7485,
      "senza": 7486,
      "ĠKwaMashu": 7487,
      "ĠkukaM": 7488,
      "Ġezahlukahlukene": 7489,
      "ĠNgisho": 7490,
      "ĠFor": 7491,
      "Mithetho": 7492,
      "Ġeziyisikhombisa": 7493,
      "xwayiso": 7494,
      "ĠUniversity": 7495,
      "didiyela": 7496,
      "ĠuPa": 7497,
      "gency": 7498,
      "Ġezenziwa": 7499,
      "86": 7500,
      "Loku": 7501,
      "UNksz": 7502,
      "Ġbhu": 7503,
      "ngU": 7504,
      "Ġuboshwe": 7505,
      "Ġaqale": 7506,
      "nisi": 7507,
      "Ġukuqeda": 7508,
      "Ġamaphuzu": 7509,
      "data": 7510,
      "Ġkwavela": 7511,
      "Ġyilabo": 7512,
      "Ġngokubhala": 7513,
      "Ġyokufunda": 7514,
      "dumele": 7515,
      "Ġngiye": 7516,
      "ĠwoM": 7517,
      "bonakali": 7518,
      "Ġenyuvesi": 7519,
      "Ġkwikhomishini": 7520,
      "sukuma": 7521,
      "ĠTi": 7522,
      "shukela": 7523,
      "Ġuzobe": 7524,
      "Ġwentando": 7525,
      "nju": 7526,
      "ĠLokho": 7527,
      "Ġnezinhlamvu": 7528,
      "Ġngokocansi": 7529,
      "khomishani": 7530,
      "Ġinkululeko": 7531,
      "ĠCommission": 7532,
      "setshenzwa": 7533,
      "UK": 7534,
      "Umbiko": 7535,
      "WEN": 7536,
      "ls": 7537,
      "Ġudutshulwe": 7538,
      "Ġukuvalwa": 7539,
      "Ġukusabalala": 7540,
      "khuza": 7541,
      "Ġokufaka": 7542,
      "Ġzithi": 7543,
      "iningi": 7544,
      "Ġyokwakha": 7545,
      "Ġmadoda": 7546,
      "Ġoluthile": 7547,
      "dlulela": 7548,
      "ĠaseNingizimu": 7549,
      "tholakalanga": 7550,
      "Ġaboshwe": 7551,
      "Ġomubi": 7552,
      "Mina": 7553,
      "Ġkithina": 7554,
      "Ġolwedlule": 7555,
      "zwakalayo": 7556,
      "qhakambisa": 7557,
      "New": 7558,
      "Twitter": 7559,
      "llo": 7560,
      "uro": 7561,
      "ĠuX": 7562,
      "Ġakhiphe": 7563,
      "wezi": 7564,
      "Ġkumanje": 7565,
      "Ġkubikwa": 7566,
      "ĠoMkhandlu": 7567,
      "nesikhathi": 7568,
      "Ġabalandeli": 7569,
      "Ġbasebenze": 7570,
      "Ġezimweni": 7571,
      "Ġwangena": 7572,
      "Ġwaphuma": 7573,
      "fakisicelo": 7574,
      "Ġesibhaliwe": 7575,
      "Ġokuvela": 7576,
      "diki": 7577,
      "hlupha": 7578,
      "Ġnezimpahla": 7579,
      "Ġlokufaka": 7580,
      "mber": 7581,
      "Ġemikhakheni": 7582,
      "chaziwe": 7583,
      "Ġlwabantu": 7584,
      "Ġ23": 7585,
      "Zongile": 7586,
      "dedelwe": 7587,
      "Ġinqubekela": 7588,
      "Ġpic": 7589,
      "44": 7590,
      "DS": 7591,
      "Iningi": 7592,
      "UIF": 7593,
      "Ġmu": 7594,
      "Ġukhuluma": 7595,
      "mas": 7596,
      "Ġisebenza": 7597,
      "Ġikhomishini": 7598,
      "lonyeni": 7599,
      "yane": 7600,
      "Ġono": 7601,
      "Ġothintekayo": 7602,
      "Ġbalu": 7603,
      "Ġbawo": 7604,
      "bikele": 7605,
      "Ġnokwakha": 7606,
      "ĠUCele": 7607,
      "Ġamahhovisi": 7608,
      "Ġngeminyaka": 7609,
      "Ġlakwa": 7610,
      "Ġemnyango": 7611,
      "Ġelizayo": 7612,
      "gue": 7613,
      "mbulala": 7614,
      "top": 7615,
      "Ġzombuso": 7616,
      "rain": 7617,
      "ĠPu": 7618,
      "Ġnemininingwane": 7619,
      "Ġ26": 7620,
      "njeni": 7621,
      "yuni": 7622,
      "Ġabangaphezu": 7623,
      "Abanye": 7624,
      "ĠuDlamini": 7625,
      "ĠMotshekga": 7626,
      "dweshu": 7627,
      "bhukuda": 7628,
      "ĠMedi": 7629,
      "Ġbakahulumeni": 7630,
      "Ġngokuzikhandla": 7631,
      "menyezelwe": 7632,
      "To": 7633,
      "ken": 7634,
      "ĠuSihlalo": 7635,
      "simbi": 7636,
      "Ġnkulumo": 7637,
      "lingisi": 7638,
      "Ġkuqhu": 7639,
      "Ġkuthathwa": 7640,
      "beza": 7641,
      "zalwane": 7642,
      "keka": 7643,
      "Ġosemthethweni": 7644,
      "zomthetho": 7645,
      "Ġabasebenzisa": 7646,
      "Ġezisa": 7647,
      "kini": 7648,
      "Ġngokwenzeka": 7649,
      "Ġamarekhodi": 7650,
      "Ġumvuno": 7651,
      "Ġesintu": 7652,
      "motweni": 7653,
      "shosho": 7654,
      "ĠNon": 7655,
      "Ġimigudu": 7656,
      "phuze": 7657,
      "Ġizinhlamvu": 7658,
      "Ġizinhlangothi": 7659,
      "fontein": 7660,
      "Ġemikhulu": 7661,
      "Ġkwezindlu": 7662,
      "Lokho": 7663,
      "ĠUMengameli": 7664,
      "ngxenyeni": 7665,
      "khuthaze": 7666,
      "ĠNgokuthola": 7667,
      "gqeke": 7668,
      "utenant": 7669,
      "MazU": 7670,
      "57": 7671,
      "App": 7672,
      "Ġingo": 7673,
      "Ġibanga": 7674,
      "Ġukuphi": 7675,
      "melwa": 7676,
      "kholakala": 7677,
      "Ġkaba": 7678,
      "ngonyaka": 7679,
      "Ġesibhekene": 7680,
      "phephe": 7681,
      "qokelwe": 7682,
      "Ġzizi": 7683,
      "phoxe": 7684,
      "Ġlemali": 7685,
      "ndiwe": 7686,
      "takula": 7687,
      "ngenwa": 7688,
      "Ġngicela": 7689,
      "Ġkokubili": 7690,
      "Ġukubambisana": 7691,
      "Ġubuhlungu": 7692,
      "Ġwokugcina": 7693,
      "Ġnesibhamu": 7694,
      "Ġngobuningi": 7695,
      "qondweni": 7696,
      "Khungo": 7697,
      "ĠBusi": 7698,
      "Ġkomhlabathi": 7699,
      "chnology": 7700,
      "MazUngU": 7701,
      "Senzo": 7702,
      "yste": 7703,
      "ĠuLe": 7704,
      "Ġubhekene": 7705,
      "Ġefu": 7706,
      "Ġekwazi": 7707,
      "Ġeqondene": 7708,
      "Ġingu": 7709,
      "Ġabuyele": 7710,
      "Ġukuqinisa": 7711,
      "ntwini": 7712,
      "zelela": 7713,
      "boshelwe": 7714,
      "mes": 7715,
      "Ġabameli": 7716,
      "solile": 7717,
      "ĠnoMthetho": 7718,
      "Ġizivivinyo": 7719,
      "Ġizinyembezi": 7720,
      "Ġngalunye": 7721,
      "Ġsikhona": 7722,
      "fafa": 7723,
      "thathi": 7724,
      "phetho": 7725,
      "ĠweMfundo": 7726,
      "Ġsehlakalo": 7727,
      "vumi": 7728,
      "cekela": 7729,
      "Ġyokulwa": 7730,
      "Ġsawo": 7731,
      "zwakale": 7732,
      "Ġizinjongo": 7733,
      "sikhathini": 7734,
      "ĠSibiya": 7735,
      "ĠChu": 7736,
      "ĠUmholi": 7737,
      "Ġebengi": 7738,
      "hholo": 7739,
      "Bantu": 7740,
      "Abasolwa": 7741,
      "Konke": 7742,
      "buzana": 7743,
      "guqulwa": 7744,
      "Ngokwe": 7745,
      "Lungelo": 7746,
      "Limpopo": 7747,
      "elson": 7748,
      "dadewethu": 7749,
      "Ġngokwesigatshana": 7750,
      "Ġengenayo": 7751,
      "khuleko": 7752,
      "zwelana": 7753,
      "zukulwane": 7754,
      "ĠKwenzeka": 7755,
      "Ġendimeni": 7756,
      "Wi": 7757,
      "dge": 7758,
      "dlwana": 7759,
      "ĠuThu": 7760,
      "simo": 7761,
      "sezingeni": 7762,
      "phambana": 7763,
      "soseshini": 7764,
      "nyela": 7765,
      "Ġsidinga": 7766,
      "hleka": 7767,
      "ĠNya": 7768,
      "ĠuMe": 7769,
      "doo": 7770,
      "ĠuNgcobo": 7771,
      "ĠKube": 7772,
      "shwalense": 7773,
      "Ġomnyama": 7774,
      "Ġnesidingo": 7775,
      "Ġwesibili": 7776,
      "thintekile": 7777,
      "Ngcobo": 7778,
      "ĠKapa": 7779,
      "Okunye": 7780,
      "Ġowengamele": 7781,
      "ngcola": 7782,
      "NA": 7783,
      "Te": 7784,
      "Ġesuka": 7785,
      "Ġnyuvesi": 7786,
      "loko": 7787,
      "namhlanje": 7788,
      "Ġabahlanu": 7789,
      "Ġizikhali": 7790,
      "Ġnabesifazane": 7791,
      "Ġumhlalaphansi": 7792,
      "Ġisiphi": 7793,
      "Ġkombuso": 7794,
      "suthu": 7795,
      "Ġlinye": 7796,
      "khinya": 7797,
      "Ġkokunye": 7798,
      "fundaze": 7799,
      "ĠKulo": 7800,
      "ĠKusukela": 7801,
      "Ġolunzulu": 7802,
      "Ġubugwegwe": 7803,
      "ndlulula": 7804,
      "Ġayikhokhelwa": 7805,
      "Ġkwalolu": 7806,
      "Ġnobuholi": 7807,
      "Inkantolo": 7808,
      "ĠWathi": 7809,
      "ĠYebo": 7810,
      "Ġokwenziwe": 7811,
      "Bhu": 7812,
      "DF": 7813,
      "eutenant": 7814,
      "ff": 7815,
      "yn": 7816,
      "Ġv": 7817,
      "Ġthi": 7818,
      "Ġxa": 7819,
      "Ġuxolo": 7820,
      "ĠeD": 7821,
      "Ġetholakala": 7822,
      "Ġephephile": 7823,
      "ĠiMeya": 7824,
      "kazwelonke": 7825,
      "ĠkuNgqongqoshe": 7826,
      "lungwane": 7827,
      "Ġezithize": 7828,
      "ĠUmuntu": 7829,
      "Ġisibonelelo": 7830,
      "Ġyam": 7831,
      "Ġngokusebenza": 7832,
      "mpson": 7833,
      "suse": 7834,
      "Ġlisho": 7835,
      "ĠScience": 7836,
      "phuzile": 7837,
      "jantshi": 7838,
      "Ġlokushaya": 7839,
      "heid": 7840,
      "ndlala": 7841,
      "Ġngezizathu": 7842,
      "Ġayizange": 7843,
      "ĠNgizo": 7844,
      "Ġyezingane": 7845,
      "Ġnjalonjalo": 7846,
      "miselwe": 7847,
      "ndodakazi": 7848,
      "hlanze": 7849,
      "stitu": 7850,
      "tshalaliswa": 7851,
      "Ġlukahulumeni": 7852,
      "thuthukiswe": 7853,
      "gramu": 7854,
      "Ġzobugebengu": 7855,
      "xhumene": 7856,
      "Ġuthishanhloko": 7857,
      "Bheka": 7858,
      "Kwe": 7859,
      "izolo": 7860,
      "lahlwe": 7861,
      "Ġuben": 7862,
      "Ġuhlale": 7863,
      "Ġimpesheni": 7864,
      "Ġabhekene": 7865,
      "Ġkukhulunywa": 7866,
      "Ġukushaya": 7867,
      "Ġukugula": 7868,
      "Ġukuletha": 7869,
      "zakhamizi": 7870,
      "khaleni": 7871,
      "Ġsicela": 7872,
      "Ġnemoto": 7873,
      "castle": 7874,
      "shiywa": 7875,
      "Ġyese": 7876,
      "Ġlithi": 7877,
      "Ġsomthetho": 7878,
      "ĠEn": 7879,
      "Ngizo": 7880,
      "Limo": 7881,
      "zwakalisa": 7882,
      "300": 7883,
      "Ġuzoku": 7884,
      "Ġisho": 7885,
      "Ġikomiti": 7886,
      "Ġukulu": 7887,
      "Ġukushayela": 7888,
      "ĠoM": 7889,
      "Ġosukwini": 7890,
      "hlazo": 7891,
      "Ġabathe": 7892,
      "Ġbaqhubeke": 7893,
      "khunge": 7894,
      "Ġizitolo": 7895,
      "thumba": 7896,
      "thande": 7897,
      "Ġumthelela": 7898,
      "Ġumntwana": 7899,
      "Ġokuthe": 7900,
      "Ġkokwenziwa": 7901,
      "Ġkokhetho": 7902,
      "Ġyikho": 7903,
      "ĠAgency": 7904,
      "ĠSte": 7905,
      "rance": 7906,
      "pangeni": 7907,
      "Ġengasa": 7908,
      "Ġwenhlangano": 7909,
      "Phathwa": 7910,
      "feze": 7911,
      "nciphi": 7912,
      "ncial": 7913,
      "thandani": 7914,
      "Ġezoba": 7915,
      "Ġezomnotho": 7916,
      "khankasweni": 7917,
      "dletshe": 7918,
      "ĠlaseNingizimu": 7919,
      "DP": 7920,
      "Mgungundlovu": 7921,
      "imi": 7922,
      "ks": 7923,
      "baso": 7924,
      "Ġukuchaza": 7925,
      "khohlwa": 7926,
      "Ġwahamba": 7927,
      "Ġngempilo": 7928,
      "mont": 7929,
      "fili": 7930,
      "celwe": 7931,
      "duku": 7932,
      "ĠyoMkhandlu": 7933,
      "Ġlokuphatha": 7934,
      "fundile": 7935,
      "ĠnguMkhandlu": 7936,
      "Ġubulili": 7937,
      "jiki": 7938,
      "Ġwesifunda": 7939,
      "Ġngesinye": 7940,
      "ryheid": 7941,
      "juba": 7942,
      "ĠFund": 7943,
      "Gazethi": 7944,
      "IP": 7945,
      "Is": 7946,
      "King": 7947,
      "Mpilo": 7948,
      "mqulu": 7949,
      "Ġugogo": 7950,
      "ĠuSolwazi": 7951,
      "Ġethola": 7952,
      "Ġitholakala": 7953,
      "Ġilayisensi": 7954,
      "Ġkungene": 7955,
      "zelele": 7956,
      "Ġumdlalo": 7957,
      "Ġbezwe": 7958,
      "ĠSho": 7959,
      "ĠStu": 7960,
      "nder": 7961,
      "dlalweni": 7962,
      "ĠKubalulekile": 7963,
      "Ġenen": 7964,
      "xoshwe": 7965,
      "Ġwuhulumeni": 7966,
      "ĠBay": 7967,
      "ĠBathi": 7968,
      "ĠyaseThekwini": 7969,
      "ĠwezeziMali": 7970,
      "joyina": 7971,
      "2010": 7972,
      "ĠWaye": 7973,
      "Ġebandleni": 7974,
      "vumelene": 7975,
      "Ġbaboshwe": 7976,
      "Ġabezimo": 7977,
      "phonsa": 7978,
      "mndeni": 7979,
      "lekele": 7980,
      "Ġelula": 7981,
      "Ġkumi": 7982,
      "Ġukubuyela": 7983,
      "yeza": 7984,
      "phandleni": 7985,
      "Ġbabone": 7986,
      "ĠnoMthethosisekelo": 7987,
      "Ġisisu": 7988,
      "sebenziseni": 7989,
      "Ġlengculazi": 7990,
      "ĠNgubane": 7991,
      "Ġyonyaka": 7992,
      "zinsuku": 7993,
      "kaziwa": 7994,
      "Ġnamazwe": 7995,
      "Ġabese": 7996,
      "qikelela": 7997,
      "Ġengakwazi": 7998,
      "ntaco": 7999
    },
    "merges": [
      "k u",
      "n g",
      "t h",
      "l a",
      "Ġ u",
      "z i",
      "l e",
      "w a",
      "b a",
      "Ġ e",
      "s i",
      "e n",
      "m a",
      "Ġ i",
      "k a",
      "h a",
      "Ġ n",
      "l o",
      "Ġ a",
      "w e",
      "Ġ ng",
      "s e",
      "th i",
      "l i",
      "k h",
      "Ġ ku",
      "n d",
      "o ku",
      "l u",
      "n i",
      "Ġu ku",
      "ng a",
      "Ġ k",
      "b e",
      "s a",
      "n a",
      "y e",
      "p h",
      "y a",
      "z a",
      "s h",
      "k e",
      "y i",
      "m i",
      "n t",
      "Ġ o",
      "n e",
      "z e",
      "th e",
      "en i",
      "z o",
      "b u",
      "p ha",
      "b o",
      "y o",
      "m e",
      "h la",
      "Ġa ba",
      "kh o",
      "Ġ ka",
      "l wa",
      "Ġ ba",
      "b i",
      "kh u",
      "f u",
      "s o",
      "k ha",
      "Ġuku thi",
      "Ġn o",
      "n ye",
      "th o",
      "m u",
      "Ġe zi",
      "k i",
      "b en",
      "k o",
      "Ġi zi",
      "Ġng a",
      "nd a",
      "Ġn a",
      "se ben",
      "Ġ wa",
      "th u",
      "Ġng o",
      "Ġ U",
      "Ġ si",
      "f a",
      "ng o",
      "Ġn e",
      "Ġa ma",
      "th a",
      "s ha",
      "ng i",
      "Ġu m",
      "w o",
      "Ġ lo",
      "Ġe si",
      "nt u",
      "ph e",
      "Ġng e",
      "d a",
      "Ġi si",
      "Ġk wa",
      "n o",
      "b h",
      "ng u",
      "n ya",
      "j e",
      "Ġ oku",
      "l we",
      "seben zi",
      "h le",
      "Ġ be",
      "w en",
      "q o",
      "d i",
      "m o",
      "Ġk we",
      "ng e",
      "k wa",
      "kh e",
      "le la",
      "m bi",
      "Ġk o",
      "w eni",
      "Ġ zi",
      "ph o",
      "g a",
      "c a",
      "sh o",
      "Ġno ma",
      "h u",
      "Ġ yi",
      "Ġ ya",
      "w u",
      "Ġng oku",
      "sh i",
      "khu lu",
      "e la",
      "q a",
      "Ġ we",
      "Ġ la",
      "Ġ se",
      "m p",
      "Ġ le",
      "Ġn oku",
      "ph i",
      "c i",
      "z we",
      "h lo",
      "s u",
      "q u",
      "Ġ N",
      "Ġ y",
      "v u",
      "m ba",
      "nt o",
      "h o",
      "Ġ K",
      "n ke",
      "s wa",
      "k we",
      "me le",
      "Ġ A",
      "Ġ ye",
      "Ġ M",
      "i ni",
      "Ġn je",
      "sh e",
      "v a",
      "pha ka",
      "d e",
      "Ġka nye",
      "the tho",
      "d wa",
      "nd i",
      "Ġ li",
      "kha thi",
      "t i",
      "kho na",
      "Ġ S",
      "Ġu M",
      "bh e",
      "b ha",
      "Ġi mi",
      "f i",
      "c e",
      "Ġu ma",
      "v i",
      "ph u",
      "Ġ I",
      "ne le",
      "Ġy oku",
      "phaka thi",
      "ma li",
      "z oku",
      "fu thi",
      "r i",
      "z u",
      "nd e",
      "t a",
      "d u",
      "Ġ futhi",
      "h lu",
      "ki le",
      "v e",
      "Ġe m",
      "kh i",
      "Ġ za",
      "n u",
      "ng en",
      "Ġng en",
      "k wen",
      "t sh",
      "Ġne zi",
      "hla nga",
      "Ġe li",
      "fa nele",
      "Ġ yo",
      "Ġ sa",
      "j a",
      "Ġu the",
      "nd o",
      "t e",
      "g u",
      "Ġlo ku",
      "Ġi n",
      "Ġ s",
      "tho la",
      "q e",
      "n si",
      "m bu",
      "g o",
      "nd le",
      "z wa",
      "t o",
      "yi sa",
      "Ġngo ba",
      "Ġng i",
      "Ġku sho",
      "h e",
      "Ġko dwa",
      "w i",
      "ke la",
      "m be",
      "Ġaba ntu",
      "mu ntu",
      "me la",
      "Ġk oku",
      "nd la",
      "m eni",
      "Ġe ku",
      "Ġ zo",
      "Ġ zoku",
      "le le",
      "Ġ ma",
      "d o",
      "Ġizi n",
      "si khathi",
      "d la",
      "g i",
      "Ġ ze",
      "Ġnga pha",
      "r a",
      "fu nda",
      "lu le",
      "g ci",
      "g e",
      "Ġs oku",
      "Ġu N",
      "c wa",
      "ba ntu",
      "d lela",
      "hle lo",
      "nu z",
      "ĠK u",
      "zi n",
      "x a",
      "ka zi",
      "Ġ L",
      "seben za",
      "pho yisa",
      "Ġnje ngo",
      "q ini",
      "li sa",
      "kwa zi",
      "nya ka",
      "s we",
      "Ġku le",
      "Ġ lu",
      "c o",
      "Ġuku ze",
      "ĠU the",
      "Ġ wo",
      "n zi",
      "M a",
      "n je",
      "q hu",
      "bo na",
      "Ġuku ba",
      "U ku",
      "en e",
      "Ġo lu",
      "mbi sa",
      "ni ngi",
      "mp a",
      "0 0",
      "ca la",
      "lu meni",
      "p a",
      "Ġe n",
      "Ġ B",
      "Ġ m",
      "le ni",
      "nga ne",
      "m en",
      "Ġ so",
      "Z u",
      "f o",
      "Ġla pho",
      "nto lo",
      "en zi",
      "ka ntolo",
      "nt i",
      "ĠS i",
      "Ġna ma",
      "S i",
      "zu lu",
      "Ġk wen",
      "Ġ khona",
      "r e",
      "Ġe mi",
      "mp i",
      "fu ndi",
      "qa la",
      "Ġng u",
      "Ġu bu",
      "f ri",
      "n y",
      "Ġ E",
      "ze ka",
      "hu lumeni",
      "sh wa",
      "m thetho",
      "Ġka khulu",
      "Ġku mele",
      "Ġkwe zi",
      "bu la",
      "Ġa be",
      "q i",
      "Ġnjengo ba",
      "ph en",
      "Ġ O",
      "nd ela",
      "m bo",
      "nya ngo",
      "t sha",
      "Ġk wi",
      "ka la",
      "su ku",
      "Ġ C",
      "K u",
      "h i",
      "ĠuM nuz",
      "ye la",
      "fu na",
      "zi ni",
      "o n",
      "Ġe ma",
      "kwen za",
      "nda wo",
      "ce lo",
      "ng qo",
      "mu va",
      "nd lu",
      "bh i",
      "th wa",
      "Ġe se",
      "za ne",
      "da ba",
      "ni ke",
      "ku lu",
      "bi li",
      "w oku",
      "x o",
      "b eni",
      "be ka",
      "Ġ wu",
      "n qu",
      "qini se",
      "N a",
      "Ġi mali",
      "lu ngu",
      "ĠM a",
      "Ġnge sikhathi",
      "nd lela",
      "hlanga no",
      "Ġ (",
      "ki sa",
      "Ġa ku",
      "r o",
      "Ġ ,",
      "le ka",
      "ngen a",
      "thi wa",
      "c ha",
      "Ġ woku",
      "Ġe nga",
      "nd eni",
      "Ġku fanele",
      "n ja",
      "se la",
      "sebenzi sa",
      "Ġn en",
      "hla la",
      "ĠA fri",
      "Ġ lwe",
      "so lwa",
      "ze la",
      "s en",
      "Ġno m",
      "si pa",
      "sipa la",
      "wa ne",
      "Ġkwa ma",
      "Ġu muntu",
      "zi wa",
      "w ini",
      "Ġ pha",
      "nt a",
      "mpi lo",
      "Ġ 1",
      "h li",
      "Zu lu",
      "Ġ T",
      "Ġy en",
      "hla ba",
      "lwa zi",
      "Ġa nga",
      "Ġ -",
      "lu ngi",
      "k ene",
      "d lu",
      "tsh enzi",
      "ĠuN k",
      "c u",
      "nda ba",
      "we si",
      "Ġku zo",
      "Ġku be",
      "Ġu be",
      "mbi li",
      "t u",
      "z en",
      "ke le",
      "Ġna ba",
      "j i",
      "phe la",
      "Ġ W",
      "me li",
      "Ġ P",
      "yi si",
      "ĠK wa",
      "se tshenzi",
      "Ġnga ma",
      "N i",
      "ngi zi",
      "Ġko m",
      "Ġnge zi",
      "le lwa",
      "mu nye",
      "Ġne mi",
      "da wo",
      "fa na",
      "se ke",
      "Ġku ka",
      "shi ni",
      "ngizi mu",
      "Ġama phoyisa",
      "g qo",
      "Ġbe se",
      "l weni",
      "Ġ lwa",
      "Ġ bo",
      "Ġku nga",
      "hla ka",
      "Ġo m",
      "Ġka hle",
      "Ni ngizimu",
      "ngqo she",
      "q ha",
      "g wa",
      "Ġi zo",
      "sh u",
      "ni sa",
      "A N",
      "nda weni",
      "hu ma",
      "Ġku lo",
      "tho le",
      "Ġne si",
      "Ġngen dlela",
      "ha mba",
      "Ġka nti",
      "Ġu zo",
      "men de",
      "Ġwe si",
      "ga ba",
      "ta l",
      "fa zane",
      "Ġlo khu",
      "ng eni",
      "si za",
      "ki nga",
      "Ġle si",
      "la ndela",
      "Ġ 2",
      "li le",
      "vu me",
      "ĠAfri ka",
      "Ġum sebenzi",
      "ca ne",
      "go mo",
      "ki si",
      "Ġisi khathi",
      "ga ma",
      "lo nke",
      "nge lo",
      "kha ya",
      "fu ndo",
      "thu thu",
      "mpa hla",
      "Ġngoku thi",
      "ha mbisa",
      "qhu beka",
      "Ġngen xa",
      "U ma",
      "d lule",
      "fa ka",
      "Ġ wen",
      "C o",
      "se le",
      "Ġ D",
      "T he",
      "s z",
      "ho li",
      "I zi",
      "funda zwe",
      "Ġezi n",
      "Ġ mi",
      "Ġku ba",
      "no ma",
      "phe zulu",
      "thi le",
      "Ġa yi",
      "phi nde",
      "bh u",
      "Ġngapha ndle",
      "mo to",
      "bhe ka",
      "t she",
      "Ġ R",
      "A ma",
      "Ġkwe si",
      "v ela",
      "Ġ G",
      "wa ye",
      "z weni",
      "le li",
      "L o",
      "Ġ Ġ",
      "S o",
      "ĠU m",
      "zini si",
      "y en",
      "Na tal",
      "ba la",
      "en ye",
      "nt e",
      "Ġa ka",
      "s eni",
      "qe mbu",
      "li mi",
      "kha ndlu",
      "setshenzi swa",
      "hlo bo",
      "Ġse ku",
      "bhi zinisi",
      "di ngo",
      "lu ngelo",
      "zi we",
      "Ġya khe",
      "th we",
      "Ġkwa ba",
      "ve le",
      "M thetho",
      "x huma",
      "ko le",
      "seke lo",
      "Ġe za",
      "Ġu ya",
      "AN C",
      "Ġa se",
      "I si",
      "p o",
      "Ġse si",
      "tha tha",
      "nga ni",
      "Ġna se",
      "lo khu",
      "khulu ma",
      "ni ni",
      "th weni",
      "a ma",
      "sh we",
      "Ġwa se",
      "U m",
      "the le",
      "Ġwa khe",
      "ndle ni",
      "nde le",
      "phe pha",
      "s t",
      "nqu mo",
      "hlu kene",
      "ĠU N",
      "Ġka nja",
      "Ġ Z",
      "khulu mela",
      "gci na",
      "gqo ngqoshe",
      "bu ye",
      "kha la",
      "nga meli",
      "fi ke",
      "Ġye si",
      "Ġ phakathi",
      "Ġe be",
      "tha thu",
      "Ġngo kwe",
      "Ġba zo",
      "h we",
      "vi si",
      "li we",
      "v o",
      "hlo so",
      "bh o",
      "Ġ Y",
      "Ġo be",
      "ĠU M",
      "ĠN gi",
      "ng x",
      "kho khe",
      "c ela",
      "Ġo bu",
      "Ġzo nke",
      "Ġ H",
      "ngen e",
      "Ġyi ni",
      "ka yo",
      "la wu",
      "Ġisi celo",
      "le si",
      "ĠKwa Zulu",
      "x i",
      "n cane",
      "n j",
      "1 9",
      "P ha",
      "ka mpa",
      "p e",
      "khu ngo",
      "yela na",
      "khi qi",
      "di nge",
      "2 0",
      "no tho",
      "Ġlo m",
      "Ġ .",
      "se lwa",
      "ĠL o",
      "ĠB a",
      "Ġnga lo",
      "L wesi",
      "Ġkwe mi",
      "hli n",
      "pha tha",
      "cwa di",
      "ny wa",
      "tsh u",
      "kha n",
      "thu ba",
      "Ġnga yo",
      "Ġku yo",
      "thola kala",
      "Ġe M",
      "t ela",
      "g qu",
      "L e",
      "Ġngapha nsi",
      "k wini",
      "nt sha",
      "Ġnge si",
      "Ġye zi",
      "Ġkule li",
      "Ġizi nto",
      "zwe lonke",
      "bhe dlela",
      "Ġyo m",
      "nga ma",
      "ga me",
      "Ġwa thi",
      "Ġya ma",
      "xhuma na",
      "ĠuNk k",
      "Ġnoku thi",
      "Ġba se",
      "ngx enye",
      "fi ka",
      "u la",
      "ke lwa",
      "x e",
      "f e",
      "nga ka",
      "na ma",
      "kampa ni",
      "pha thi",
      "h ho",
      "B a",
      "Ġe ya",
      "y u",
      "Ġku phela",
      "se m",
      "bha la",
      "Ġi sa",
      "Ġku khona",
      "lu la",
      "qu bo",
      "ĉ ĉ",
      "Ġi cala",
      "hla lo",
      "ja lo",
      "ma sipala",
      "Ġe ndaweni",
      "game ko",
      "la nde",
      "N o",
      "za ma",
      "ko si",
      "Ġnge muva",
      "n ci",
      "Ġngapha mbi",
      "bula la",
      "ĠL e",
      "le kile",
      "Ġwu ku",
      "li ma",
      "di nga",
      "Ġpha nsi",
      "the ngi",
      "ti on",
      "tsh wa",
      "Ġnge ke",
      "n eni",
      "da la",
      "c hi",
      "Ġnezi n",
      "S A",
      "sha ya",
      "Ġli ka",
      "si sekelo",
      "qo ndi",
      "mi nyaka",
      "kh wa",
      "Ġa si",
      "ba nga",
      "Ġna ye",
      "ĠuM a",
      "Ġku ya",
      "Ġse zi",
      "Ġu nga",
      "Ġ ben",
      "cha za",
      "Ġ F",
      "l li",
      "ng wane",
      "Ġe sa",
      "Ġya se",
      "tha nda",
      "Ġwo nke",
      "hambisa na",
      "Ġle zi",
      "sha ye",
      "ha mbe",
      "Ġnje nge",
      "Ġku thiwa",
      "thi sha",
      "Ġa zi",
      "le lo",
      "the thweni",
      "Ġba ya",
      "pha nsi",
      "bo ne",
      "Ġs en",
      "mi sa",
      "x u",
      "lule kile",
      "Ġe muva",
      "nga ba",
      "Ġe bu",
      "Ġlo kho",
      "p i",
      "qinise kisa",
      "hla nu",
      "Ġ bu",
      "kho mbisa",
      "ze lo",
      "te r",
      "the lo",
      "N ga",
      "Ġoku mele",
      "k eni",
      "fa kazi",
      "phu mela",
      "Ġe zo",
      "hho visi",
      "hlu ka",
      "kwen ziwa",
      "ĠuNk sz",
      "phen du",
      "Ġo wa",
      "Ġ \"",
      "Ġwa ye",
      "ĠA ba",
      "Ġe ze",
      "ke lele",
      "Ġzo m",
      "Ġu si",
      "Ġyo nke",
      "Ġu kwe",
      "gu nya",
      "Ġngo Lwesi",
      "Ġbe ku",
      "S a",
      "li se",
      "Ġse be",
      "Ġyi si",
      "o r",
      "K wa",
      "si we",
      "Ġn jalo",
      "Ġizo lo",
      "si fazane",
      "mi le",
      "Ġyen a",
      "Ġi m",
      "phe zu",
      "ĠU ku",
      "nge kho",
      "lwa ne",
      "phu ma",
      "g we",
      "Â Ģ",
      "Ã ¢",
      "ÂĢ Â",
      "P he",
      "00 0",
      "ĠO khulumela",
      "Ġu R",
      "ke lwe",
      "x ha",
      "ny u",
      "Ġu lwazi",
      "thu la",
      "Ġen kantolo",
      "ko leni",
      "ma phoyisa",
      "hlu ku",
      "Zu ma",
      "Ġwe ze",
      "Ġum thetho",
      "N gi",
      "Ġu hlelo",
      "ngo zi",
      "The kwini",
      "Ġ J",
      "Ġku su",
      "Ġi nga",
      "li ni",
      "Ġsi ka",
      "hlo la",
      "qa le",
      "Ġngo m",
      "co no",
      "Ġi ndlela",
      "S e",
      "d eni",
      "Ġn dawo",
      "Ġum phakathi",
      "ĠS e",
      "Ġe N",
      "nd u",
      "na ni",
      "ng weni",
      "ne zi",
      ") ,",
      "qo nda",
      "M e",
      "ng qu",
      "fo mu",
      "so nto",
      "tha the",
      "K ho",
      "li ndele",
      "a r",
      "ba lo",
      "ze ke",
      "ga tsha",
      "gci wane",
      "le lwe",
      "Ġe ngu",
      "qhu be",
      "i n",
      "Ġisi mo",
      "Ġaba sebenzi",
      "j o",
      "Ġezi nga",
      "gu ngu",
      "ki swa",
      "ĠU ma",
      "Ġwe zi",
      "Ġma yelana",
      "c we",
      "yi se",
      "Ġze zi",
      "ĠN go",
      "a l",
      "Ġkwa lo",
      "Lo khu",
      "Ġzi ka",
      "pha wu",
      "mp ela",
      "ba ni",
      "ndle ko",
      "Ġi nto",
      "ge be",
      "nt shi",
      "Ġi ndawo",
      "qha za",
      "za yo",
      "Ġla khe",
      "Ġa wu",
      "ne si",
      "bi ko",
      "ng wa",
      "la mende",
      "Ġkanja ni",
      "da bu",
      "ge si",
      "Ġnga be",
      "Ġuku sebenza",
      "j waye",
      "nya thelo",
      "Ġsi zo",
      "sebenzi ni",
      "la nga",
      "the mba",
      "do da",
      "nya ma",
      "Ġizi ngane",
      "thi nte",
      "mi ni",
      "ve ze",
      "Ġu se",
      "Ġaba nye",
      "nini ngwane",
      "Ġ zen",
      "Ġba nga",
      "n yi",
      "Ã ĥ",
      "be lo",
      "L a",
      "ĠN a",
      "fa ke",
      "Ġno bu",
      "Ġwa ba",
      "lli on",
      "mp u",
      "Ġaba nga",
      "Ġza ma",
      "mu zi",
      "Ġsoku thi",
      "m vu",
      "li swa",
      "ĠN o",
      "Z i",
      "Ġo nga",
      "nzi ma",
      "th eni",
      "kho no",
      "Ġna bo",
      "Ġkwa khe",
      "Ġkoku thi",
      "Ġimi sebenzi",
      "fi nye",
      "n qa",
      "Ġza bo",
      "Ġwa ma",
      "ĠC o",
      "phe the",
      "Ġbo nke",
      "Ġyi zi",
      "gebe ngu",
      "hlo ko",
      "su ngu",
      "Ġ b",
      "Ġu kwenza",
      "Ġkule si",
      "mu fi",
      "ki we",
      "g cwa",
      "Ġaba fundi",
      "be le",
      "Ġna lo",
      "Ġo kwa",
      "Ġisi nqumo",
      "phe she",
      "le zwe",
      "Ġbe be",
      "sha na",
      "Ġpha mbili",
      ") .",
      "ko mi",
      "ma nje",
      "ĠN ge",
      "ze le",
      "bo shwa",
      "sho na",
      "bhe kene",
      "y wa",
      "the la",
      "ta ti",
      "nsi za",
      "te kisi",
      "ng oku",
      "mi se",
      "ĠN ga",
      "no m",
      "Ġo f",
      "va ka",
      "ze kile",
      "hlo ni",
      "pho sa",
      "Ġbe zi",
      "Ġ ;",
      "ndo da",
      "Ġba be",
      "ve za",
      "nike za",
      "Pha lamende",
      "n wa",
      "Ġyoku thi",
      "ba lulekile",
      "Ġuku zi",
      "nda ka",
      "za li",
      "Ġnga le",
      "vi kela",
      "A ba",
      "bula wa",
      "ĠN g",
      "ĠI n",
      "N g",
      "ĠUN k",
      "Ġa bo",
      "la bo",
      "tsh ela",
      "ama phosa",
      "le ke",
      "Ġu D",
      "M nyango",
      "Ġma nje",
      "pha ndle",
      "Ġ 000",
      "qe qe",
      "o na",
      "thi ni",
      "Ġ 3",
      "vume lwa",
      "khi pha",
      "N gqongqoshe",
      "Ġla bo",
      "Ġu daba",
      "khu la",
      "Ġe thi",
      "Ġla pha",
      "Ġa zo",
      "W a",
      "Ġko nke",
      "vu mela",
      "ka le",
      "ĠI si",
      "Ġ daba",
      "pha thele",
      "phakathi ni",
      "Ġya bo",
      "ni na",
      "K o",
      "M khandlu",
      "nge ke",
      "c hwe",
      "Ġezi ningi",
      "u nda",
      "Ġo munye",
      "ze mpilo",
      "hlanga nisa",
      "ĠB e",
      "phi la",
      "vi d",
      "m hla",
      "kha tha",
      "ce le",
      "thu ko",
      "do ko",
      "la hle",
      "phen yo",
      "Ġu hulumeni",
      "Ġama nzi",
      "n kulu",
      "Ġnga kho",
      "hlaka lo",
      "Ġu su",
      "zi nga",
      "phu thu",
      "phathele ne",
      "ne minyaka",
      "cwa ni",
      "20 1",
      "Ġku ma",
      "tho mbo",
      "Ġn ya",
      "Ġama ndla",
      "phu me",
      "Ġama lungu",
      "Ġngo ko",
      "nja lo",
      "Ġa ye",
      "kha kha",
      "Ġwuku thi",
      "me me",
      "Ġi ngane",
      "nya nga",
      "bu zo",
      "Ġsi nga",
      "Ġwe zoku",
      "Ġle li",
      "Ġngo M",
      "ya zi",
      "phe le",
      "A fri",
      "ĠKu thiwa",
      "I mi",
      "gci ne",
      "Ġnga ba",
      "si le",
      "B u",
      "hla le",
      "Ġku m",
      "I n",
      "dlu li",
      "tha thwa",
      "Ġesi bhedlela",
      "hle la",
      "Ġbe si",
      "Ġe yi",
      "Ġlo lu",
      "bu za",
      "Ġla ba",
      "qini so",
      "t y",
      "shi ya",
      "pha za",
      "ngu m",
      "thuthu kisa",
      "Ġe khaya",
      "shi we",
      "hlin ze",
      "gwa qo",
      "l l",
      "Ġku yi",
      "Ġku ze",
      "cwe le",
      "Ġso m",
      "dinge ka",
      "Ġya ba",
      "sa sa",
      "thi nta",
      "bo ni",
      "nd lini",
      "r y",
      "Ġe Thekwini",
      "khu ndleni",
      "ĠW e",
      "Ġu kwa",
      "Ġkwa ku",
      ". .",
      "m fundo",
      "Ġi qhaza",
      "la la",
      "nga na",
      "n en",
      "ma nga",
      "ci ngo",
      "Ġizin hlelo",
      "Ġlo wo",
      "du ze",
      "vumelwa no",
      "Ġkwa bantu",
      "Ġngo nyaka",
      "fi sa",
      "Ġuku thola",
      "ĠM o",
      "Ġsa khe",
      "nt wa",
      "g cwele",
      "khu ndla",
      "l wen",
      "o nke",
      "Ġo se",
      "Ġoku yi",
      "li swe",
      "bona kala",
      "phen ya",
      "Phe zulu",
      "q wa",
      "Ġkoku ba",
      "ĠW a",
      "fana yo",
      "lawu la",
      "mbu lu",
      "e r",
      "Ġ muntu",
      "yi ni",
      "Co vid",
      "Ġuku dla",
      "ni kazi",
      "ngen zeka",
      "lu nga",
      "Ġezi nye",
      "gu qu",
      "Ġe bi",
      "C a",
      "K a",
      "sebenzi se",
      "bhe ke",
      "zi so",
      "N k",
      "bha mu",
      "li ngani",
      "pha ke",
      "she sha",
      "za nge",
      "ve lo",
      "mi so",
      "Ġi za",
      "Ġu thi",
      "Ġa ngi",
      "hlanga ni",
      "bu yi",
      "Ġem sebenzini",
      "Ġe ba",
      "ca banga",
      "m gomo",
      "I zin",
      "nye lwe",
      "Ġama bili",
      "Ġku bo",
      "be la",
      "Ġwo m",
      "Ġsi khathi",
      "chwe pheshe",
      "ca ci",
      "khan ka",
      "phe lele",
      "do lo",
      "k t",
      "ba ndela",
      "Ġi ya",
      "ze lwa",
      "h ha",
      "Kho mi",
      "y eni",
      "Ġi ka",
      "be zi",
      "kwe le",
      "du mbu",
      "Ġem va",
      "Ġza se",
      "Ġezi ndaweni",
      "ĠA ma",
      "o u",
      "Ġkusu kela",
      "dla lo",
      "Ġsi ya",
      "Ġzi nga",
      "su ka",
      "sa na",
      "za thu",
      "ĠI zi",
      "n xu",
      "ci mbi",
      "Ġuku nga",
      "kha si",
      "z wi",
      "jwaye lekile",
      "Ġo mu",
      "Ġngi sho",
      "qinise ki",
      "U M",
      "r u",
      "Ġezi ngu",
      "zi le",
      "bha lo",
      "Ġem hla",
      "mu kela",
      "doko tela",
      "Ġizi ndawo",
      "Z we",
      "n we",
      "Ġe fanele",
      "j u",
      "Ġn i",
      "Ġkwe zin",
      "khan sela",
      "Ġweze M",
      "nga thi",
      "ĠUM nuz",
      "khu ba",
      "mu phi",
      "hlu leka",
      "khi shwa",
      "Mthetho sisekelo",
      "ti ki",
      "mbo ni",
      "N go",
      "d lwe",
      "ku leli",
      "Ġe Ningizimu",
      "thi mba",
      "L u",
      "nge la",
      "khu tha",
      "to lo",
      "Ġkanja lo",
      "lo vu",
      "Ġba zi",
      "phi le",
      "wa bo",
      "li nye",
      "qo ka",
      "n yo",
      "Ġum hlaba",
      "lungi sa",
      "ka thi",
      "Ġngo kwa",
      "Ġku wo",
      "Ġna ku",
      "lungi swa",
      "J a",
      "Ġoku nga",
      "ja bu",
      "Ġeku seni",
      "ba ne",
      "Ġe yo",
      "so mbulu",
      "Ġaba ningi",
      "z eni",
      ", \"",
      "gwa q",
      "Ġna le",
      "1 0",
      "Ġo waye",
      "Ġla ma",
      "gqu gqu",
      "lande lwe",
      "S ha",
      "ba mbe",
      "na ke",
      "Ġngu m",
      "e le",
      "K ha",
      "Ġnezi nye",
      "ho la",
      "tati mende",
      "bheka na",
      "mbo lo",
      "Ġmi llion",
      "tshu deni",
      "Ġe ngi",
      "e s",
      "u ku",
      "Ġika khulu",
      "hla n",
      ". \"",
      "g qi",
      "Ġama cala",
      "gatsha na",
      "en t",
      "Ġnge mi",
      "so la",
      "landela yo",
      "kha lo",
      "ĉĉ ĉĉ",
      "ĠL a",
      "kwen zeka",
      "zo m",
      "Ġusi zo",
      "sem thethweni",
      "ndaka nya",
      "su ke",
      "p ula",
      "shi sa",
      "Ġsa se",
      "the nga",
      "dlwe ngu",
      "c h",
      "zu zo",
      "Ġesi koleni",
      "ng cono",
      "shaye li",
      "th en",
      "yen a",
      "Ġabe be",
      "L i",
      "Ġemhla beni",
      "lindele ke",
      "cwani ngo",
      "zi mali",
      "the lela",
      "hlo lwa",
      "H u",
      "shi wo",
      "ĠM thetho",
      "Ġi ndoda",
      "ĠAfri ca",
      "bone lo",
      "ba mba",
      "ny we",
      "ga beni",
[...]
